{
  "token_to_idx": {
    "<PAD>": 0,
    "<SOS>": 1,
    "<EOS>": 2,
    "<UNK>": 3,
    "x": 4,
    "=": 5,
    "r": 6,
    "\\cos": 7,
    "\\theta": 8,
    "\\frac": 9,
    "{": 10,
    "1": 11,
    "}": 12,
    "(": 13,
    "+": 14,
    ")": 15,
    "2": 16,
    "^": 17,
    "-": 18,
    "Segmentation": 19,
    "n": 20,
    "\\phi": 21,
    "\\mbox": 22,
    "s": 23,
    "_": 24,
    "1,": 25,
    "\\pi": 26,
    "h": 27,
    "3": 28,
    "\\int": 29,
    "\\beta": 30,
    "d": 31,
    "c": 32,
    "a": 33,
    "f": 34,
    "b": 35,
    "m": 36,
    "\\times": 37,
    "F": 38,
    "\\tan": 39,
    "\\cdots": 40,
    "7": 41,
    "i": 42,
    "N": 43,
    "X": 44,
    "\\sin": 45,
    "\\left": 46,
    "4": 47,
    "\\right": 48,
    "\\sqrt": 49,
    "A": 50,
    "R": 51,
    "B": 52,
    "E": 53,
    "j": 54,
    "G": 55,
    "u": 56,
    "M": 57,
    "v": 58,
    "\\lim": 59,
    "\\rightarrow": 60,
    "3a": 61,
    "1a": 62,
    "2a": 63,
    "3x": 64,
    "0": 65,
    "y": 66,
    "ns": 67,
    "1,j": 68,
    "P": 69,
    "\\sum": 70,
    "\\left|S\\right|": 71,
    ",": 72,
    "dx": 73,
    "\\to": 74,
    "z": 75,
    "H": 76,
    "21": 77,
    "48": 78,
    "z,z": 79,
    "16": 80,
    "k": 81,
    "g": 82,
    "l": 83,
    "[5]": 84,
    "55": 85,
    "\\prime": 86,
    "\\alpha": 87,
    "2k": 88,
    "2RA": 89,
    "2R": 90,
    "4R": 91,
    "175": 92,
    "\\div": 93,
    "129": 94,
    "163": 95,
    "28": 96,
    "\\leq": 97,
    "e": 98,
    "[n]": 99,
    "2k\\pi": 100,
    "140": 101,
    "/": 102,
    "168": 103,
    "\\neq": 104,
    "114": 105,
    "q": 106,
    "\\": 107,
    "65": 108,
    "197": 109,
    "o": 110,
    "\\infty": 111,
    "T": 112,
    "p": 113,
    "[L": 114,
    "]": 115,
    "L": 116,
    "w": 117,
    "dg": 118,
    "\\log": 119,
    "V": 120,
    "\\cdot": 121,
    "9.6": 122,
    "t": 123,
    "dt": 124,
    ",t": 125,
    "\\forall": 126,
    "5": 127,
    "!": 128,
    "8": 129,
    "\\gt": 130,
    "ku": 131,
    "75": 132,
    "35": 133,
    "86": 134,
    "96": 135,
    "\\geq": 136,
    "221": 137,
    "\\mu": 138,
    "E[X": 139,
    "n]": 140,
    "ct": 141,
    "u\\neq": 142,
    ",x": 143,
    "lim": 144,
    "45": 145,
    "98": 146,
    "170": 147,
    "125": 148,
    "76": 149,
    "77": 150,
    "\\sin\\theta": 151,
    "[": 152,
    "2\\left": 153,
    "I,": 154,
    "dy": 155,
    "\\mathrm": 156,
    "ip": 157,
    "\\left|": 158,
    "$": 159,
    "\\right|": 160,
    "10": 161,
    "200": 162,
    "2ab": 163,
    "\\Bigg": 164,
    "dd": 165,
    "\\pm": 166,
    "4ac": 167,
    "E,F": 168,
    "op": 169,
    "ba": 170,
    "LL": 171,
    "116": 172,
    "78": 173,
    "80": 174,
    "184": 175,
    "\\Big": 176,
    "0.3": 177,
    "dT": 178,
    "[x]": 179,
    "c\\sin": 180,
    "xy": 181,
    "9": 182,
    "6": 183,
    "dv": 184,
    "2dx": 185,
    "\\lambda": 186,
    "15": 187,
    "tg": 188,
    "167": 189,
    "f,": 190,
    "qn": 191,
    "41": 192,
    "118": 193,
    "124": 194,
    "130": 195,
    "|": 196,
    "38": 197,
    "61": 198,
    "99": 199,
    "2x": 200,
    "4x": 201,
    "SA": 202,
    "AE": 203,
    "2c": 204,
    "4b": 205,
    "3d": 206,
    "18abcd": 207,
    "27a": 208,
    "2d": 209,
    "127": 210,
    "149": 211,
    "81": 212,
    "233": 213,
    "Y": 214,
    "46": 215,
    "95": 216,
    "79": 217,
    "\\limits": 218,
    "S": 219,
    "ds": 220,
    "ax": 221,
    "\\lt": 222,
    "\\sigma": 223,
    "24": 224,
    "6.2": 225,
    "2.1": 226,
    "dp": 227,
    "2p": 228,
    "I": 229,
    "2y": 230,
    "kw": 231,
    "2mn": 232,
    "9.8": 233,
    "nt": 234,
    "12": 235,
    "1.9": 236,
    "49": 237,
    "vv": 238,
    "162": 239,
    "107": 240,
    "151": 241,
    "\\in": 242,
    "E,": 243,
    "b,c": 244,
    "18": 245,
    "141": 246,
    "14": 247,
    "ikx": 248,
    "0.19": 249,
    "P[X]": 250,
    "3X": 251,
    "dw": 252,
    "26": 253,
    "146": 254,
    "164": 255,
    "dn": 256,
    "C": 257,
    "card": 258,
    "606": 259,
    "1,x": 260,
    "2,x": 261,
    "\\gamma": 262,
    "ij": 263,
    "0.1": 264,
    "i2": 265,
    "\\Delta": 266,
    "4a": 267,
    "103": 268,
    "67": 269,
    "153": 270,
    "2n": 271,
    "3\\tan": 272,
    "173": 273,
    "198": 274,
    "158": 275,
    "166": 276,
    "110": 277,
    "nY": 278,
    "8.5": 279,
    "144": 280,
    "113": 281,
    "27": 282,
    "TX": 283,
    "133": 284,
    "123": 285,
    "EI": 286,
    "6a": 287,
    "132": 288,
    "1789": 289,
    "\\ldots": 290,
    "erf": 291,
    ",f": 292,
    "At": 293,
    "13": 294,
    "i,": 295,
    "j,": 296,
    "6x": 297,
    "12x": 298,
    "rot": 299,
    ",b": 300,
    ",c": 301,
    "bi": 302,
    "360": 303,
    "\\cos\\theta": 304,
    "i\\sin\\theta": 305,
    "i,i": 306,
    "0,": 307,
    "196": 308,
    "68": 309,
    "GL": 310,
    "sin": 311,
    "106": 312,
    "89": 313,
    "74": 314,
    "104": 315,
    "135": 316,
    "70": 317,
    "39": 318,
    "143": 319,
    "[3]": 320,
    "37": 321,
    "47": 322,
    "800": 323,
    "km": 324,
    "VdP": 325,
    "dF": 326,
    "i,j": 327,
    "25": 328,
    "82": 329,
    "56": 330,
    "wt": 331,
    "20": 332,
    "109": 333,
    "83": 334,
    "42": 335,
    "191": 336,
    ">": 337,
    "pd": 338,
    "kb": 339,
    "bx": 340,
    "9a": 341,
    "n!": 342,
    "56.5": 343,
    "2.0": 344,
    "11": 345,
    "Cste": 346,
    "10x": 347,
    "5x": 348,
    "101": 349,
    "139": 350,
    "2e": 351,
    "7x": 352,
    "21x": 353,
    "2xy": 354,
    "2,0": 355,
    "157": 356,
    "50": 357,
    "138": 358,
    "\\!": 359,
    "ja": 360,
    "sn": 361,
    "ac": 362,
    "122": 363,
    "33": 364,
    "22": 365,
    "92": 366,
    "tu": 367,
    "dz": 368,
    "0.8": 369,
    "lu": 370,
    "max": 371,
    "Ext": 372,
    "2,": 373,
    "d\\": 374,
    "2\\pi": 375,
    "193": 376,
    "31": 377,
    "1.6": 378,
    "1,A": 379,
    ",A": 380,
    "91": 381,
    "190": 382,
    "178": 383,
    "53": 384,
    "161": 385,
    "186": 386,
    "iy": 387,
    "2b": 388,
    "x.y": 389,
    "||": 390,
    "537": 391,
    "x\\neq\\pm": 392,
    "ab": 393,
    "1110\\": 394,
    "f,s": 395,
    "252": 396,
    "13x": 397,
    "40": 398,
    "27x": 399,
    "187": 400,
    "154": 401,
    "183": 402,
    "1234": 403,
    "5678": 404,
    "90": 405,
    "dP": 406,
    "145": 407,
    "5,": 408,
    "df": 409,
    "0,y": 410,
    "000": 411,
    "0.4": 412,
    "73": 413,
    "189": 414,
    "v,": 415,
    "nx": 416,
    "1x": 417,
    "ki": 418,
    "dX": 419,
    "mc": 420,
    "oo": 421,
    "s,0": 422,
    "Sup": 423,
    "8\\cos": 424,
    "n\\theta": 425,
    "152": 426,
    "\\right]": 427,
    "xa": 428,
    "4px": 429,
    "5\\tan": 430,
    "10\\tan": 431,
    "di": 432,
    "ijk": 433,
    "64": 434,
    "3.7": 435,
    "30": 436,
    "34": 437,
    "134": 438,
    "155": 439,
    "192": 440,
    "159": 441,
    "4.6": 442,
    "|P": 443,
    "3|": 444,
    "2\\sin": 445,
    "b\\pm": 446,
    "66": 447,
    "148": 448,
    "181": 449,
    "94": 450,
    "\\;": 451,
    "117": 452,
    "72": 453,
    "\\exists": 454,
    "7.6": 455,
    "8x": 456,
    "8xy": 457,
    "48x": 458,
    "1s": 459,
    "2s": 460,
    "6,": 461,
    "3s": 462,
    "3p": 463,
    "2w": 464,
    "\\left[": 465,
    "1.3": 466,
    "71": 467,
    "a,b,c,d": 468,
    "36": 469,
    "lp": 470,
    "6.9": 471,
    "r,\\theta": 472,
    "9.9": 473,
    "fr": 474,
    "<": 475,
    ",B": 476,
    "nR": 477,
    "176": 478,
    "180": 479,
    "179": 480,
    "160": 481,
    "moy": 482,
    "dR": 483,
    "tc": 484,
    "br": 485,
    "85": 486,
    "351": 487,
    "kN": 488,
    "19": 489,
    "128": 490,
    "29": 491,
    "01": 492,
    "194": 493,
    "52": 494,
    "dI": 495,
    "X,M": 496,
    "by": 497,
    "5t": 498,
    "58": 499,
    "0.02": 500,
    "15X": 501,
    "102": 502,
    "195": 503,
    "142": 504,
    "NY": 505,
    "6.7": 506,
    "u,": 507,
    "w,": 508,
    "dC": 509,
    "320": 510,
    "0,0": 511,
    "du": 512,
    "51": 513,
    "126": 514,
    "dk": 515,
    "43": 516,
    "199": 517,
    "10a": 518,
    "5a": 519,
    "ca": 520,
    "4\\pi": 521,
    "111": 522,
    "93": 523,
    "|z|\\mathrm": 524,
    "i\\theta": 525,
    "cx": 526,
    ".": 527,
    "Ra": 528,
    "Rb": 529,
    "ex": 530,
    "q2": 531,
    "23": 532,
    "a\\sin": 533,
    "2,l": 534,
    "\\phi\\in": 535,
    "f,x": 536,
    "2B": 537,
    "2,s": 538,
    "2bt": 539,
    "\\left|a": 540,
    "x,y,z,t": 541,
    "z,": 542,
    "gu": 543,
    "1,\\pm": 544,
    "1,0,0": 545,
    "59": 546,
    "q,": 547,
    "nq": 548,
    "iX": 549,
    "jX": 550,
    ".\\Delta": 551,
    "cp": 552,
    "ep": 553,
    "8.8": 554,
    "2\\theta": 555,
    "0.05": 556,
    "0.001": 557,
    "4l": 558,
    "256": 559,
    "7.2": 560,
    "mf": 561,
    "9x": 562,
    "ik": 563,
    "6.0": 564,
    "pM": 565,
    "63": 566,
    "188": 567,
    "3b": 568,
    "4ab": 569,
    "gg": 570,
    "id": 571,
    "3y": 572,
    "120": 573,
    "69": 574,
    "171": 575,
    "60": 576,
    "97": 577,
    "1.2": 578,
    "4.5": 579,
    "p,": 580,
    "g,": 581,
    "cn": 582,
    "17": 583,
    "1\\sin": 584,
    "137": 585,
    "136": 586,
    "147": 587,
    "wX": 588,
    "a,": 589,
    "b,": 590,
    "9.0": 591,
    "Vw": 592,
    "tot": 593,
    "MH": 594,
    ",\\theta": 595,
    "Id": 596,
    "112": 597,
    "EE": 598,
    "2X": 599,
    "131": 600,
    "84": 601,
    "1000": 602,
    "3.6": 603,
    "62": 604,
    "ay": 605,
    "15\\pi": 606,
    "v,v": 607,
    "LM": 608,
    "4\\cos": 609,
    "3\\cos": 610,
    "t\\mathrm": 611,
    "3.3": 612,
    ",s": 613,
    "nb": 614,
    "v,t": 615,
    "0i": 616,
    "mp": 617,
    "0.0": 618,
    "115": 619,
    "de": 620,
    "sat": 621,
    "7,": 622,
    "k\\theta": 623,
    "i\\neq": 624,
    "nS": 625,
    "4.2": 626,
    "Ci": 627,
    "1,n": 628,
    "eff": 629,
    "185": 630,
    "2q": 631,
    "dq": 632,
    "x,y": 633,
    "tv": 634,
    "d\\left": 635,
    "x,y\\right": 636,
    "p\\left": 637,
    "y\\right": 638,
    "k[X": 639,
    "0.01": 640,
    "[a,b]": 641,
    "bc": 642,
    "ad": 643,
    "xe": 644,
    "1111": 645,
    "zw": 646,
    "32": 647,
    "6.5": 648,
    "0,3": 649,
    "xd": 650,
    "|a": 651,
    "n|": 652,
    "2u": 653,
    "n\\neq": 654,
    "100": 655,
    "8.2": 656,
    "172": 657,
    "1.99": 658,
    "9.5": 659,
    "1024": 660,
    "247": 661,
    "250": 662,
    "432": 663,
    "jk": 664,
    "pe": 665,
    "y\\in": 666,
    "HS": 667,
    "'": 668,
    "r,t": 669,
    "5,1": 670,
    "4.7": 671,
    "ap": 672,
    "|x": 673,
    "y|": 674,
    "|x|": 675,
    "|y|": 676,
    "mg": 677,
    "2\\cos": 678,
    "\\infty,\\infty": 679,
    "11\\pi": 680,
    "qS": 681,
    "7.1": 682,
    "[x": 683,
    "y]": 684,
    "[\\sigma": 685,
    "1,\\sigma": 686,
    "2]": 687,
    "uu": 688,
    "2f": 689,
    "uv": 690,
    "m\\left": 691,
    "m3": 692,
    "m\\right": 693,
    "3ax": 694,
    "3abc": 695,
    "125a": 696,
    "225a": 697,
    "90a": 698,
    "135a": 699,
    "255": 700,
    "\\!\\mathrm": 701,
    "Pa": 702,
    "l,m": 703,
    "8.1": 704,
    "169": 705,
    "88": 706,
    "ut": 707,
    "108": 708,
    "div": 709,
    "44": 710,
    "aa": 711,
    "bb": 712,
    "ix": 713,
    "mi": 714,
    "||x": 715,
    "57": 716,
    "i\\infty": 717,
    "2.7": 718,
    "dB": 719,
    "87": 720,
    "g\\in": 721,
    "8z": 722,
    "24c": 723,
    "2z": 724,
    "8c": 725,
    "3z": 726,
    "fg": 727,
    "FG": 728,
    "1,0,0,\\pm": 729,
    "1b": 730,
    "7j": 731,
    "213": 732,
    "k,": 733,
    "||z": 734,
    "x||": 735,
    "y||": 736,
    "||y": 737,
    "119": 738,
    "174": 739,
    "2g": 740,
    "177": 741,
    "5.5": 742,
    "Pr": 743,
    "it": 744,
    "1.5": 745,
    "A,B\\": 746,
    "dA": 747,
    "A,": 748,
    ",z": 749,
    "8\\pi": 750,
    "14x": 751,
    "af": 752,
    "dY": 753,
    "3.2": 754,
    "999": 755,
    "ny": 756,
    "3t": 757,
    "5.7": 758,
    "i\\in": 759,
    "7.7": 760,
    "Ax": 761,
    "2,7": 762,
    "254": 763,
    "3,": 764,
    "4i": 765,
    "1.7": 766,
    "e\\": 767,
    "XY": 768,
    "YX": 769,
    ",a": 770,
    "1y": 771,
    "\\parallel": 772,
    "da": 773,
    "dV": 774,
    "3.1": 775,
    "6z": 776,
    "9.1": 777,
    "bd": 778,
    "||x||": 779,
    "||y||": 780,
    "3\\pi": 781,
    "165": 782,
    "s\\": 783,
    "ti": 784,
    "dl": 785,
    "|u": 786,
    "2v": 787,
    "1v": 788,
    "tE": 789,
    "zy": 790,
    "2xz": 791,
    "2t": 792,
    "5u": 793,
    "2i\\pi": 794,
    "dM": 795,
    "378": 796,
    "2r": 797,
    "4r": 798,
    "4G": 799,
    "2M": 800,
    "GM": 801,
    "706": 802,
    "\\lbrack": 803,
    "\\rbrack": 804,
    "jb": 805,
    "4z": 806,
    "pg": 807,
    "nf": 808,
    "bj": 809,
    "mn": 810,
    "54": 811,
    "Sh": 812,
    "r,": 813,
    "1729": 814,
    "AB": 815,
    "AC": 816,
    "BC": 817,
    "nz": 818,
    "2bx": 819,
    "SSE": 820,
    "dr": 821,
    "i,p": 822,
    "B,": 823,
    "0,2": 824,
    "1n": 825,
    "dN": 826,
    "5,0": 827,
    "min": 828,
    "v\\sin": 829,
    "xx": 830,
    "yx": 831,
    "2.29": 832,
    "7.5": 833,
    "calc": 834,
    "156": 835,
    "4y": 836,
    "kx": 837,
    "7.9": 838,
    "adx": 839,
    "121": 840,
    "5.1": 841,
    "8y": 842,
    "8.3": 843,
    "u,v": 844,
    "0,p": 845,
    "227": 846,
    ",v": 847,
    "ji": 848,
    "20,6": 849,
    "nn": 850,
    "aq": 851,
    "rV": 852,
    "5.4": 853,
    "|a|": 854,
    "ak": 855,
    "2\\neq": 856,
    "5i": 857,
    "3.4": 858,
    "0z": 859,
    "xz": 860,
    "ua": 861,
    "vb": 862,
    "150": 863,
    "5.3": 864,
    "dc": 865,
    "ir": 866,
    "2ab\\cos": 867,
    "aX": 868,
    "sp": 869,
    "h,": 870,
    "2.9": 871,
    "x\\Delta": 872,
    "pk": 873,
    "216": 874,
    "ft": 875,
    "m,": 876,
    "mod": 877,
    "7.0": 878,
    "3.57": 879,
    "kp": 880,
    "2i\\sin": 881,
    "2i": 882,
    "2gy": 883,
    "\\theta,": 884,
    "\\phi,": 885,
    "t,y": 886,
    ",y": 887,
    "1\\right": 888,
    "4pq": 889,
    "4X": 890,
    "pgcd": 891,
    "182": 892,
    "3,2": 893,
    "3,4": 894,
    "lr": 895,
    "x|": 896,
    "5.0": 897,
    "XX": 898,
    "3ab": 899,
    "X,Y": 900,
    "2pq": 901,
    "au": 902,
    "ie": 903,
    "iF": 904,
    "1,0": 905,
    "1c": 906,
    "iP": 907,
    "eH": 908,
    "3N": 909,
    "0.6": 910,
    "PE": 911,
    "jl": 912,
    "kl": 913,
    "dj": 914,
    "h,k": 915,
    "4,": 916,
    "7a": 917,
    "25a": 918,
    "Y,d": 919,
    ",X": 920,
    "|B": 921,
    "lh": 922,
    "lk": 923,
    "7.3": 924,
    "BT": 925,
    "2.4": 926,
    "x,": 927,
    "y,": 928,
    "u\\": 929,
    "236": 930,
    "\\left|V": 931,
    "tS": 932,
    "1B": 933,
    "3B": 934,
    "\\sin\\theta\\cos\\phi": 935,
    "1t": 936,
    "0.9": 937,
    ",g": 938,
    "p,l": 939,
    "bq": 940,
    "n\\left": 941,
    "720": 942,
    "Y,": 943,
    "n,": 944,
    "sx": 945,
    "tx": 946,
    "8s": 947,
    "105": 948,
    "6k": 949,
    "w\\neq": 950,
    "7i": 951,
    "ht": 952,
    "371": 953,
    "NkT": 954,
    "pq": 955,
    "365": 956,
    "400": 957,
    "na": 958,
    "ii": 959,
    "307": 960,
    "dm": 961,
    "cT": 962,
    "265": 963,
    "abz": 964,
    "3.8": 965,
    "2,1": 966,
    "1.8": 967,
    "Nm": 968,
    "a,y": 969,
    "a,z": 970,
    "2L": 971,
    "ln": 972,
    "0,\\pm": 973,
    "nc": 974,
    "i,y": 975,
    "Cu": 976,
    "9.2": 977,
    "LG": 978,
    "EX": 979,
    "ABOVE": 980,
    "3R": 981,
    "n,1": 982,
    "Pk": 983,
    "Hz": 984,
    "4m": 985,
    ",\\pi": 986,
    "dE": 987,
    "nm": 988,
    "sT": 989,
    "343": 990,
    "1u": 991,
    "xRy": 992,
    "6p": 993,
    "\\hbox": 994,
    "a\\": 995,
    "t,x": 996,
    "nL": 997,
    "pi": 998,
    "db": 999,
    "px": 1000,
    "yz": 1001,
    "zx": 1002,
    "0.59": 1003,
    "i,q": 1004,
    "1,p": 1005,
    "2n\\pi": 1006,
    "[0,1]": 1007,
    "2S": 1008,
    "5xy": 1009,
    "d\\theta": 1010,
    "i,j,k": 1011,
    "648": 1012,
    "st": 1013,
    "0,7": 1014,
    "900": 1015,
    "log": 1016,
    "py": 1017,
    "ar": 1018,
    "881": 1019,
    "kg": 1020,
    "2N": 1021,
    "xyx": 1022,
    "3n": 1023,
    "c,": 1024,
    "d,": 1025,
    "6.3": 1026,
    "2m": 1027,
    "po": 1028,
    "bX": 1029,
    "8.9": 1030,
    "n,m": 1031,
    "tw": 1032,
    "n,n": 1033,
    "iii": 1034,
    "p,q": 1035,
    ",q": 1036,
    "0,1": 1037,
    "pa": 1038,
    "2AB": 1039,
    "2C": 1040,
    "y,z": 1041,
    "X,p": 1042,
    "fd": 1043,
    "3i": 1044,
    "6.1": 1045,
    "RC": 1046,
    "cb": 1047,
    "tN": 1048,
    "RS": 1049,
    "Tz": 1050,
    "[S]": 1051,
    "iat": 1052,
    "ikt": 1053,
    "ia": 1054,
    "tn": 1055,
    "pp": 1056,
    "r,\\theta,\\phi": 1057,
    "15!": 1058,
    "1,2": 1059,
    "pm": 1060,
    "7y": 1061,
    "dH": 1062,
    "sl": 1063,
    "rl": 1064,
    "i,n": 1065,
    "6n": 1066,
    "2bxy": 1067,
    "cy": 1068,
    "0,x": 1069,
    "24\\pi": 1070,
    "Var": 1071,
    "[X": 1072,
    "i]": 1073,
    "1r": 1074,
    "tY": 1075,
    "dh": 1076,
    "ux": 1077,
    "vx": 1078,
    "i,s": 1079,
    "8k": 1080,
    "2j": 1081,
    "5.2": 1082,
    "CV": 1083,
    "cm": 1084,
    "vp": 1085,
    "0101": 1086,
    "[b]": 1087,
    "ts": 1088,
    "bz": 1089,
    "1127": 1090,
    "jt": 1091,
    "279": 1092,
    "wa": 1093,
    "20x": 1094,
    "\\phi\\right": 1095,
    "9.81": 1096,
    "az": 1097,
    "tX": 1098,
    "mv": 1099,
    "9,81": 1100,
    "0,5": 1101,
    "1,1": 1102,
    "rc": 1103,
    "il": 1104,
    "3m": 1105,
    "yy": 1106,
    "ib": 1107,
    "Im": 1108,
    "ev": 1109,
    "2x10": 1110,
    "Ny": 1111,
    "27g": 1112,
    "s,t": 1113,
    "\\pm1,": 1114,
    "\\pm1": 1115,
    "975": 1116,
    "0,t": 1117,
    "lb": 1118,
    "Imf": 1119,
    "j\\sin": 1120,
    "t,": 1121,
    "bM": 1122,
    "TC": 1123,
    "2147483647": 1124,
    "xP": 1125,
    "nP": 1126,
    "pj": 1127,
    "nX": 1128,
    "1X": 1129,
    "b\\neq": 1130,
    "18x": 1131,
    "m5": 1132,
    "ka": 1133,
    "ey": 1134,
    "x,y,z": 1135,
    "E[X]": 1136,
    "E[": 1137,
    "PA": 1138,
    "eq": 1139,
    "0.5": 1140,
    "Vp": 1141,
    "6.4": 1142,
    "pA": 1143,
    "kC": 1144,
    "qA": 1145,
    "2||y": 1146,
    "nv": 1147,
    ",k": 1148,
    "0,4": 1149,
    "500": 1150,
    "\\dots": 1151,
    "8X": 1152,
    "[B]": 1153,
    "4n": 1154,
    "2,2": 1155,
    "\\theta\\right": 1156,
    "at": 1157,
    "2l": 1158,
    "y,s": 1159,
    "a,b": 1160,
    "tan": 1161,
    "945": 1162,
    "1,u": 1163,
    ",u": 1164,
    "8m": 1165,
    "all": 1166,
    "ih": 1167,
    "||w||": 1168,
    "4py": 1169,
    "2499": 1170,
    "1k": 1171,
    "3!": 1172,
    "4!": 1173,
    "a\\in": 1174,
    "b\\in": 1175,
    "v,w": 1176,
    "n,0": 1177,
    "3u": 1178,
    "x,z": 1179,
    "\\cos[": 1180,
    "x]": 1181,
    "xi": 1182,
    "0.65": 1183,
    "zB": 1184,
    "x\\neq": 1185,
    "0.7": 1186,
    "2.6": 1187,
    "8a": 1188,
    "cl": 1189,
    "721": 1190,
    "257": 1191,
    "287": 1192,
    "aL": 1193,
    "SM": 1194,
    "dG": 1195,
    "\\sin\\left": 1196,
    "2\\mathrm": 1197,
    "0.80": 1198,
    "339": 1199,
    "5.9": 1200,
    "hv": 1201,
    "e\\sin": 1202,
    "4.8": 1203,
    "215": 1204,
    "700": 1205,
    "x,t": 1206,
    "vt": 1207,
    "x\\right": 1208,
    "pH": 1209,
    "IV": 1210,
    "n,v": 1211,
    "j,k": 1212,
    "pV": 1213,
    "Nk": 1214,
    "iR": 1215,
    "1.1": 1216,
    "s,x": 1217,
    "239": 1218,
    "do": 1219,
    "dL": 1220,
    "mC": 1221,
    "x,\\theta": 1222,
    "i\\sin": 1223,
    "c\\cos": 1224,
    "RM": 1225,
    "yr": 1226,
    "s,": 1227,
    "H,H": 1228,
    ",M": 1229,
    "x\\in": 1230,
    "X,": 1231,
    ",w": 1232,
    "258": 1233,
    "|A|": 1234,
    "x,y,t": 1235,
    "a|": 1236,
    "lf": 1237,
    "aY": 1238,
    "S,T": 1239,
    "2\\right": 1240,
    "oP": 1241,
    "00": 1242,
    "HR": 1243,
    "n,e": 1244,
    "cd": 1245,
    "ni": 1246,
    "2\\phi": 1247,
    "Li": 1248,
    "3j": 1249,
    "[8]": 1250,
    "cz": 1251,
    "[g": 1252,
    "\\Delta\\neq": 1253,
    "abc": 1254,
    "t\\right": 1255,
    "x\\cos": 1256,
    "x\\sin": 1257,
    ",e": 1258,
    "7X": 1259,
    "fus": 1260,
    "1,4": 1261,
    "10r": 1262,
    "10001": 1263,
    "1q": 1264,
    "Ns": 1265,
    "u\\mathrm": 1266,
    "v\\mathrm": 1267,
    "0b": 1268,
    "ug": 1269,
    "323": 1270,
    "Ec": 1271,
    "yo": 1272,
    "2ax": 1273,
    "dS": 1274,
    "6\\pi": 1275,
    "p.q": 1276,
    "bv": 1277,
    "8.4": 1278,
    "3k": 1279,
    "2,n": 1280,
    "npq": 1281,
    "[y": 1282,
    "16]": 1283,
    "||f||": 1284,
    "a,p": 1285,
    "xyz": 1286,
    "bm": 1287,
    "4e": 1288,
    ">0": 1289,
    "2H": 1290,
    "wc": 1291,
    "2.8": 1292,
    "4.4": 1293,
    "TN": 1294,
    "NB": 1295,
    "|f": 1296,
    "q.": 1297,
    "G,H": 1298,
    "imx": 1299,
    "mx": 1300,
    "2na": 1301,
    "8.6": 1302,
    "Nil": 1303,
    "cj": 1304,
    "bp": 1305,
    "k,1": 1306,
    "12n": 1307,
    "4c": 1308,
    "6c": 1309,
    "5,3": 1310,
    "[\\cos": 1311,
    "0a": 1312,
    "gF": 1313,
    "<y": 1314,
    "\\left\\": 1315,
    "\\right\\": 1316,
    "27b": 1317,
    "t\\neq": 1318,
    "0.06": 1319,
    "1x10": 1320,
    "obs": 1321,
    "yi": 1322,
    "P\\left": 1323,
    "re": 1324,
    "AA": 1325,
    "TA": 1326,
    "2d\\theta": 1327,
    "d\\phi": 1328,
    "Ri": 1329,
    "Nu": 1330,
    "0.33": 1331,
    "E]": 1332,
    "2dt": 1333,
    "4f": 1334,
    "5n": 1335,
    "k,n": 1336,
    "571": 1337,
    "M,": 1338,
    "pz": 1339,
    "R,": 1340,
    "np": 1341,
    "[ab]": 1342,
    "x2": 1343,
    "729": 1344,
    "X,X": 1345,
    ",Y": 1346,
    "xB": 1347,
    "217": 1348,
    "dB\\left": 1349,
    "V\\right": 1350,
    "in": 1351,
    "\\tan\\left": 1352,
    "\\cos\\left": 1353,
    "gd": 1354,
    "1\\": 1355,
    "0.26": 1356,
    "1,q": 1357,
    "2,q": 1358,
    "202": 1359,
    "k\\": 1360,
    "9.7": 1361,
    "air": 1362,
    "sec": 1363,
    "bf": 1364,
    "ta": 1365,
    "228": 1366,
    "|y": 1367,
    "1|": 1368,
    "ce": 1369,
    "1.0": 1370,
    "bdf": 1371,
    "sinc": 1372,
    "gt": 1373,
    "1500": 1374,
    "n\\pi": 1375,
    "8.0": 1376,
    "P[x": 1377,
    "1]": 1378,
    "640": 1379,
    "|\\phi|": 1380,
    "s\\sin": 1381,
    "120x": 1382,
    "xf": 1383,
    "\\log\\left": 1384,
    "5\\pi": 1385,
    "jw": 1386,
    "\\right|\\right": 1387,
    "m,n": 1388,
    "8n": 1389,
    "|M|": 1390,
    "n\\log": 1391,
    "4h": 1392,
    "2h": 1393,
    "[c": 1394,
    "d]": 1395,
    "ABC11": 1396,
    "393": 1397,
    "3072": 1398,
    ",1": 1399,
    "7,x": 1400,
    "8,x": 1401,
    "2a\\cos": 1402,
    "2\\sigma": 1403,
    "4M": 1404,
    "x\\": 1405,
    "4p": 1406,
    "ydx": 1407,
    "[t": 1408,
    "a,t": 1409,
    "b]": 1410,
    "10n": 1411,
    "2\\sin\\theta": 1412,
    "3,x": 1413,
    "4,x": 1414,
    "5,x": 1415,
    "6,x": 1416,
    "Adx": 1417,
    "BCH": 1418,
    "[x,y]": 1419,
    "out": 1420,
    "[n": 1421,
    "BdA": 1422,
    "3c": 1423,
    "11x": 1424,
    "44x": 1425,
    "1e": 1426,
    "ne": 1427,
    "p2": 1428,
    "iz": 1429,
    "3840": 1430,
    "jq": 1431,
    "3675": 1432,
    "exc": 1433,
    "xdy": 1434,
    "1968": 1435,
    "1605": 1436,
    "1614": 1437,
    "1.4017": 1438,
    "0.93": 1439,
    "3\\right": 1440,
    "Lt": 1441,
    "qy": 1442,
    "kr": 1443,
    "1\\sin\\theta": 1444,
    "nk": 1445,
    "1.049": 1446,
    "4F": 1447,
    "|b|": 1448,
    "7!": 1449,
    "1z": 1450,
    "30\\cos": 1451,
    "y,B": 1452,
    "5.57": 1453,
    "[b": 1454,
    "c,a": 1455,
    "b,b": 1456,
    "c]": 1457,
    "k!": 1458,
    "nC": 1459,
    "L\\cos": 1460,
    "cyc": 1461,
    "r\\cos\\theta": 1462,
    "exp": 1463,
    "b|": 1464,
    "cr": 1465,
    "an": 1466,
    "|k|": 1467,
    "|k|u": 1468,
    "aT": 1469,
    "bT": 1470,
    "4L": 1471,
    "Ln": 1472,
    "f\\left": 1473,
    "\\left[1": 1474,
    "zdz": 1475,
    "mb": 1476,
    "1858": 1477,
    "mz": 1478,
    "4\\mu": 1479,
    "2j\\pi": 1480,
    "a[i]": 1481,
    "[1": 1482,
    "2\\log": 1483,
    "567": 1484,
    "Tr": 1485,
    "y\\": 1486,
    "|h|": 1487,
    "2,a": 1488,
    "stu": 1489,
    "[a": 1490,
    "3]": 1491,
    "xdx": 1492,
    "2dxx": 1493,
    "1,k": 1494,
    "iY": 1495,
    "end": 1496,
    "s\\cos": 1497,
    "2abc": 1498,
    "1,8": 1499,
    "4\\theta": 1500,
    "6.937": 1501,
    "yb": 1502,
    "inv": 1503,
    "iu\\sin": 1504,
    "[x,y,z]": 1505,
    "4Y": 1506,
    "5f": 1507,
    "xu": 1508,
    "xp": 1509,
    "\\neq0": 1510,
    ",\\sin": 1511,
    "|x||y|": 1512,
    "24x": 1513,
    "z,\\cos": 1514,
    "z,\\sin": 1515,
    "6\\right": 1516,
    "32R": 1517,
    "x\\sin\\theta": 1518,
    "0.010": 1519,
    "0.004": 1520,
    "i\\pi": 1521,
    "450": 1522,
    "fx\\in": 1523,
    "0,a": 1524,
    "Nx": 1525,
    "2>0": 1526,
    "Nv": 1527,
    "z\\log": 1528,
    "4t": 1529,
    "2P": 1530,
    "6y": 1531,
    "det": 1532,
    "5z": 1533,
    "9stu": 1534,
    "XCC": 1535,
    "c|": 1536,
    "n>0": 1537,
    "\\tan\\theta": 1538,
    "7.735": 1539,
    "loop": 1540,
    "|\\phi": 1541,
    "a]": 1542,
    "16\\right": 1543,
    "1920": 1544,
    "2\\tan\\theta": 1545,
    "0.77": 1546,
    "|z|": 1547,
    "2I": 1548,
    "243": 1549,
    "735": 1550,
    "2,b": 1551,
    "qx": 1552,
    "9n": 1553,
    "x,y\\": 1554,
    "|w": 1555,
    "M\\sin": 1556,
    "Log": 1557,
    "i0": 1558,
    "xxy": 1559,
    "20\\div30": 1560,
    "bc\\neq": 1561,
    "[v": 1562,
    "40x": 1563,
    "iby": 1564,
    "6!": 1565,
    "tr": 1566,
    "P[C": 1567,
    "0\\sin": 1568,
    "[A": 1569,
    "2560": 1570,
    "|ya|": 1571,
    "2dudv": 1572,
    "1[x,y,z]": 1573,
    "gx": 1574,
    "28x": 1575,
    "p\\log": 1576,
    "2p\\log": 1577,
    "0.999": 1578,
    "im": 1579,
    "3dxx": 1580,
    "3dyx": 1581,
    "3dxy": 1582,
    "3dyy": 1583,
    "3.1563": 1584,
    "NF": 1585,
    "4xyz": 1586,
    "c,z": 1587,
    "9.18": 1588,
    "|z": 1589,
    "z|": 1590,
    "7,1": 1591,
    "AdS": 1592,
    ",h": 1593,
    "15x": 1594,
    "60x": 1595,
    "16x": 1596,
    "9.3.b": 1597,
    "2|x": 1598,
    "2xd": 1599,
    "4q": 1600,
    "2m\\cos\\left": 1601,
    "x\\in[": 1602,
    "f\\in": 1603,
    "kX": 1604,
    "aA": 1605,
    "lept": 1606,
    "|q|": 1607,
    "p>": 1608,
    "bab": 1609,
    "1222": 1610,
    "703": 1611,
    "a,a": 1612,
    "4d": 1613,
    "8192": 1614,
    "8r": 1615,
    "1.973": 1616,
    "235": 1617,
    "Str": 1618,
    "Int": 1619,
    "0.3957": 1620,
    "4k": 1621,
    "2.": 1622,
    "y>0": 1623,
    "y>x": 1624,
    "3.3.28\\right": 1625,
    "3.3.29": 1626,
    "i|": 1627,
    ">y": 1628,
    "abcd": 1629,
    "|c|": 1630,
    "0.011": 1631,
    "ext": 1632,
    "dyn": 1633,
    "aE": 1634,
    "can": 1635,
    "t\\log": 1636,
    "[\\pm": 1637,
    "n\\sigma": 1638,
    "a\\cos": 1639,
    "2M\\cos": 1640,
    "y\\right|": 1641,
    "v\\neq": 1642,
    "j|": 1643,
    "|n": 1644,
    "2|": 1645,
    "a\\left": 1646,
    "0\\right": 1647,
    "2nm": 1648,
    "\\theta,0,": 1649,
    "a,b\\": 1650,
    ",n": 1651,
    "xyxy": 1652,
    "z\\right": 1653,
    "\\log[": 1654,
    "za": 1655,
    "BR": 1656,
    "[w": 1657,
    "p,p": 1658,
    "C\\neq": 1659,
    "266": 1660,
    ">2": 1661,
    "Bw": 1662,
    "292": 1663,
    "813": 1664,
    "sa": 1665,
    "0.005": 1666,
    "F\\left": 1667,
    "528": 1668,
    "1>0": 1669,
    "16\\pi": 1670,
    "[V": 1671,
    "575": 1672,
    "c\\pi": 1673,
    "6789": 1674,
    "w,z": 1675,
    "w,z\\": 1676,
    "[d": 1677,
    "1985": 1678,
    "3q": 1679,
    "5q": 1680,
    "\\pi,": 1681,
    "Ar": 1682,
    "g\\cos": 1683,
    "b\\cos\\theta": 1684,
    "\\sin\\phi": 1685,
    "1.2599": 1686,
    "32|k|": 1687,
    "4N": 1688,
    "qyx": 1689,
    "Re": 1690,
    "nF": 1691,
    "|g": 1692,
    "2gx": 1693,
    "240": 1694,
    "\\sin\\pi": 1695,
    "0x": 1696,
    "qdx": 1697,
    "4C": 1698,
    "2F": 1699,
    "c\\left": 1700,
    "aw": 1701,
    "1.783": 1702,
    "bbb": 1703,
    "4B": 1704,
    "1\\pm": 1705,
    "2\\pm": 1706,
    "as": 1707,
    "1.98": 1708,
    "|r|": 1709,
    "i\\phi": 1710,
    "[u": 1711,
    "[a]": 1712,
    "[b]\\": 1713,
    "4.799": 1714,
    "kL": 1715,
    "4\\sigma": 1716,
    "not": 1717,
    "act": 1718,
    "on": 1719,
    "0.03": 1720,
    "k\\in": 1721,
    "tt": 1722,
    "[m": 1723,
    "z[1": 1724,
    "even": 1725,
    "9.01": 1726,
    "11.78i": 1727,
    "L\\sin": 1728,
    "a[1]": 1729,
    "m!": 1730,
    "bxy": 1731,
    "np\\theta": 1732,
    "0.418": 1733,
    "B\\pm": 1734,
    "b\\theta": 1735,
    "c\\theta": 1736,
    "|A": 1737,
    "3\\pm": 1738,
    "481": 1739,
    "k|": 1740,
    "725": 1741,
    "lx": 1742,
    "L!": 1743,
    "4.4.a": 1744,
    "4.4.e": 1745,
    "5!": 1746,
    "2!": 1747,
    "220": 1748,
    "0.598": 1749,
    "|g|": 1750,
    "[R": 1751,
    "104x": 1752,
    "f\\sin": 1753,
    "6\\cos": 1754,
    "3.10": 1755,
    "my": 1756,
    "3e": 1757,
    "7e": 1758,
    "\\sin\\sigma": 1759,
    "qd": 1760,
    "2!2!": 1761,
    "0.1173\\pm": 1762,
    "iu": 1763,
    "33x": 1764,
    "132x": 1765,
    "48!": 1766,
    "17!31!": 1767,
    "[B": 1768,
    "Nxdy": 1769,
    "0.0893": 1770,
    "2000": 1771,
    "1037": 1772,
    "4\\right": 1773,
    "u,y": 1774,
    "7\\pi": 1775,
    "q\\neq": 1776,
    "and": 1777,
    "7290": 1778,
    "1782": 1779,
    "1593": 1780,
    "24f": 1781,
    "a\\neq": 1782,
    "7268": 1783,
    "[2": 1784,
    "E[f]": 1785,
    "2V": 1786,
    "xy\\right|": 1787,
    "248": 1788,
    "Bx": 1789,
    "3l": 1790,
    "\\cos\\phi": 1791,
    "deg": 1792,
    "vy": 1793,
    "9\\cos": 1794,
    "1.07371.2227": 1795,
    "xb,": 1796,
    "yb]": 1797,
    "245": 1798,
    "j\\in": 1799,
    "S,": 1800,
    "j\\neq": 1801,
    "N,": 1802,
    "\\pi2": 1803,
    "ky": 1804,
    "3.5593": 1805,
    "n2": 1806,
    "4T": 1807,
    "2f\\sin": 1808,
    "idx": 1809,
    "v\\right": 1810,
    "ann": 1811,
    "\\theta\\cos\\theta": 1812,
    "8,": 1813,
    "BI": 1814,
    "cdz": 1815,
    "11\\cos": 1816,
    "xA": 1817,
    "|\\sin": 1818,
    "phys": 1819,
    ",S": 1820,
    "RR": 1821,
    "RL": 1822,
    "LR": 1823,
    "3,1": 1824,
    "3,0": 1825,
    "2\\lambda": 1826,
    "2eBn": 1827,
    "[dz]V": 1828,
    "669": 1829,
    "vu": 1830,
    "462": 1831,
    "203": 1832,
    "Ht": 1833,
    ",j": 1834,
    "[E": 1835,
    "n.": 1836,
    "x\\left": 1837,
    "any": 1838,
    "10,1": 1839,
    "2,9": 1840,
    "z\\": 1841,
    "if": 1842,
    "b1": 1843,
    "b2": 1844,
    "t\\theta": 1845,
    "1407": 1846,
    "|t|": 1847,
    "4\\sin": 1848,
    "269": 1849,
    "mr": 1850,
    "Ce": 1851,
    "z\\left": 1852,
    "i,\\pm": 1853,
    "288": 1854,
    "dae": 1855,
    "AAA": 1856,
    "i6": 1857,
    "\\Delta\\theta": 1858,
    "\\cos\\Delta\\theta": 1859,
    "768": 1860,
    "1992": 1861,
    "2dy": 1862,
    "246": 1863,
    "52x": 1864,
    "\\tan[": 1865,
    "4\\log": 1866,
    "df.f": 1867,
    "f.df": 1868,
    "c\\neq": 1869,
    "16R": 1870,
    "1246": 1871,
    "7346": 1872,
    "3\\theta": 1873,
    "crit": 1874,
    "0|": 1875,
    "m\\cos": 1876,
    "yk": 1877,
    "[3][4][3]": 1878,
    "1.17": 1879,
    "aF": 1880,
    "dxy": 1881,
    "2\\pi\\sin": 1882,
    "y,x": 1883,
    ">1": 1884,
    "[0": 1885,
    ",0": 1886,
    "con": 1887,
    "1763": 1888,
    "me": 1889,
    "[f": 1890,
    "gh": 1891,
    "2am": 1892,
    "Gx": 1893,
    "2E": 1894,
    "4u": 1895,
    "3r": 1896,
    "xb": 1897,
    "aba": 1898,
    ",\\pm": 1899,
    "|e": 1900,
    "0e": 1901,
    "\\sin\\theta\\sin\\phi": 1902,
    "2\\mu": 1903,
    "uh": 1904,
    "1,3": 1905,
    "MR": 1906,
    "p\\neq": 1907,
    "qx,q": 1908,
    "en": 1909,
    "\\theta\\left": 1910,
    "\\pm\\left": 1911,
    "b\\phi": 1912,
    "p!j": 1913,
    "for": 1914,
    "k|z|": 1915,
    "x\\pm": 1916,
    "am": 1917,
    "b\\cos": 1918,
    "cc": 1919,
    "gf": 1920,
    "63x": 1921,
    "cab": 1922,
    "1056": 1923,
    "560": 1924,
    "acb": 1925,
    "1.07": 1926,
    "325": 1927,
    "\\left[t": 1928,
    "rw": 1929,
    "3H": 1930,
    "0.003": 1931,
    "a,b,": 1932,
    "36x": 1933,
    "\\mid": 1934,
    "z,f": 1935,
    "V\\left": 1936,
    "cos": 1937,
    "N\\log": 1938,
    "0.96x": 1939,
    "56.4x": 1940,
    "810": 1941,
    ",x\\right": 1942,
    "2ap": 1943,
    "0.04": 1944,
    "echo": 1945,
    "0,j": 1946,
    "12y": 1947,
    "17y": 1948,
    "tf": 1949,
    "x,p": 1950,
    "i,1": 1951,
    "i,k": 1952,
    "CP": 1953,
    "Sp": 1954,
    "new": 1955,
    "NX": 1956,
    "off": 1957,
    "Th": 1958,
    "No": 1959,
    "[x,x]": 1960,
    "5760": 1961,
    "AFR": 1962,
    "fuel": 1963,
    "RBB": 1964,
    "pc": 1965,
    "kt": 1966,
    "j,j": 1967,
    "t,s": 1968,
    "n,t": 1969,
    "Mod": 1970,
    "Bt": 1971,
    "2At": 1972,
    "y,\\phi": 1973,
    "\\left|x": 1974,
    "407": 1975,
    "inx": 1976,
    "v\\tan": 1977,
    "s\\mathrm": 1978,
    ",...,\\theta": 1979,
    "[y]": 1980,
    "0.f": 1981,
    "1.f": 1982,
    "3.f": 1983,
    "1A": 1984,
    "MM": 1985,
    "aB": 1986,
    "rel": 1987,
    "In": 1988,
    "2T": 1989,
    "X,L": 1990,
    "rN": 1991,
    "|\\cos\\theta": 1992,
    "10,000": 1993,
    "r\\sin\\theta": 1994,
    "u\\in": 1995,
    "mh": 1996,
    "mw": 1997,
    "0.006": 1998,
    "Mv": 1999,
    "H\\left\\": 2000,
    "avg": 2001,
    "ABAB": 2002,
    "2>": 2003,
    "RX": 2004,
    "FS": 2005,
    "is": 2006,
    "kf": 2007,
    "Rt": 2008,
    "BGL": 2009,
    "hf": 2010,
    "[\\theta": 2011,
    "X\\in": 2012,
    "...": 2013,
    "|S|": 2014,
    "k,y": 2015,
    "[0,": 2016,
    "z]": 2017,
    "r,s": 2018,
    "hA": 2019,
    "diff": 2020,
    "ES": 2021,
    "dF\\left": 2022,
    "T,V,N": 2023,
    "SdT": 2024,
    "pdV": 2025,
    "|G|": 2026,
    "30x": 2027,
    "k[A][B]": 2028,
    "ke": 2029,
    ",r": 2030,
    "n\\in": 2031,
    "i\\in\\": 2032,
    "[x,p]": 2033,
    "jj": 2034,
    "ref": 2035,
    "\\left||": 2036,
    "\\right||": 2037,
    "10,000,000,000": 2038,
    "cxy": 2039,
    "E>E": 2040,
    "7,7": 2041,
    "0,\\infty": 2042,
    "4,2": 2043,
    "36r": 2044,
    "56r": 2045,
    "21r": 2046,
    "A\\in": 2047,
    ",...,x": 2048,
    "lcm": 2049,
    "1,2,...,n": 2050,
    "Set": 2051,
    "j3": 2052,
    "solv": 2053,
    "[x,[y,z]]": 2054,
    "[z,[x,y]]": 2055,
    "[y,[z,x]]": 2056,
    "Hw": 2057,
    "xN": 2058,
    "AxBy": 2059,
    "1i": 2060,
    "1.0\\pm": 2061,
    "|B|": 2062,
    "Ay": 2063,
    "Fb": 2064,
    "soc": 2065,
    "|l|": 2066,
    ",d": 2067,
    "CE": 2068,
    "SS": 2069,
    "2kT": 2070,
    "kT": 2071,
    "4,3": 2072,
    "o,r": 2073,
    "vd": 2074,
    "mR": 2075,
    "z,w": 2076,
    "y,w": 2077,
    ">x": 2078,
    "0.85t": 2079,
    ",C": 2080,
    "th": 2081,
    "[0,k]": 2082,
    "rect": 2083,
    ".e": 2084,
    "lm": 2085,
    "MV": 2086,
    "em": 2087,
    ",p": 2088,
    "n,k,d": 2089,
    "vap": 2090,
    "cov": 2091,
    "wz": 2092,
    "\\sigma\\in": 2093,
    "q>1": 2094,
    "r>r": 2095,
    ",P": 2096,
    "[X]": 2097,
    "a,b,c": 2098,
    "b>a": 2099,
    "9t": 2100,
    "yc": 2101,
    "lkm": 2102,
    "lkmn": 2103,
    "9.807": 2104,
    "tx,ty": 2105,
    "zz": 2106,
    "fL": 2107,
    "long": 2108,
    "8Fr": 2109,
    "[A][B]": 2110,
    ",\\infty]": 2111,
    "5r": 2112,
    "ag": 2113,
    "supp": 2114,
    "t,T": 2115,
    "1,t": 2116,
    "2,t": 2117,
    "p,t": 2118,
    "AM": 2119,
    "r\\cos": 2120,
    "i,l": 2121,
    "c1": 2122,
    "c2": 2123,
    "hg": 2124,
    "ae": 2125,
    "16y": 2126,
    "MN": 2127,
    "\\phi\\left": 2128,
    "r\\right": 2129,
    "av": 2130,
    "|X": 2131,
    "[2]": 2132,
    "2eV": 2133,
    ">0.5": 2134,
    "n[H]": 2135,
    "8t": 2136,
    "s,z": 2137,
    "f.": 2138,
    "x.x": 2139,
    "x.f": 2140,
    "A,C": 2141,
    "gy": 2142,
    "TAS": 2143,
    "2\\sin\\left": 2144,
    "[AB,C]": 2145,
    "A\\": 2146,
    "a,\\lambda": 2147,
    ".P": 2148,
    ",I": 2149,
    "d\\log": 2150,
    "SE": 2151,
    ">r": 2152,
    "0.3\\pm": 2153,
    "GeV": 2154,
    "CC": 2155,
    "zyz": 2156,
    "[A,B]": 2157,
    "s1": 2158,
    "s0": 2159,
    "3\\sigma": 2160,
    "[t]": 2161,
    "jwt": 2162,
    ",T": 2163,
    "]]": 2164,
    "Beta": 2165,
    "|x[n]|": 2166,
    "P\\right": 2167,
    ",R": 2168,
    "Cn": 2169,
    "jy": 2170,
    "0.98x": 2171,
    "Ae": 2172,
    "RT": 2173,
    "2,i": 2174,
    "1,i": 2175,
    "old": 2176,
    "j,i": 2177,
    "q,p": 2178,
    "in\\theta": 2179,
    "X\\": 2180,
    "a,s": 2181,
    "Spin": 2182,
    "dx.": 2183,
    "2||x||": 2184,
    "|E": 2185,
    "3,3": 2186,
    "CA": 2187,
    "x,\\lambda": 2188,
    "xH": 2189,
    "5252": 2190,
    "ll": 2191,
    "G,t": 2192,
    "H,t": 2193,
    "0.75a": 2194,
    "0.25": 2195,
    "5.5a": 2196,
    "d2": 2197,
    "EP": 2198,
    "j!": 2199,
    "dry": 2200,
    ",0,0": 2201,
    "d,s": 2202,
    "PP": 2203,
    "y.y": 2204,
    "z.f": 2205,
    "kin": 2206,
    "T,L": 2207,
    "mm": 2208,
    "l>g": 2209,
    "iq": 2210,
    "\\lambda\\sigma": 2211,
    "0.125": 2212,
    "fH": 2213,
    ",2": 2214,
    "|T": 2215,
    ",...,y": 2216,
    "k[G]": 2217,
    ",sid": 2218,
    "Arg": 2219,
    "hr": 2220,
    "rank": 2221,
    "z,t": 2222,
    "vec": 2223,
    "FB": 2224,
    ",...": 2225,
    "5m": 2226,
    "sr": 2227,
    "xR": 2228,
    "Frac": 2229,
    "NH": 2230,
    "r>0": 2231,
    ",...,": 2232,
    "001": 2233,
    "|F": 2234,
    "x,y,p": 2235,
    "N\\mu": 2236,
    "c\\log": 2237,
    "ph": 2238,
    "NS": 2239,
    "IM": 2240,
    "Max": 2241,
    "...b": 2242,
    "bt": 2243,
    "P\\pi": 2244,
    "Ha": 2245,
    "BL": 2246,
    "R,S": 2247,
    "1\\neq": 2248,
    "H1": 2249,
    "1.33": 2250,
    "2\\pi\\left": 2251,
    ",max": 2252,
    "...p": 2253,
    "bg": 2254,
    "q\\phi": 2255,
    "pL": 2256,
    "tb": 2257,
    "hx": 2258,
    "3EI": 2259,
    "0.2126R": 2260,
    "0.7152G": 2261,
    "0.0722B": 2262,
    "pt": 2263,
    "mor": 2264,
    "rs": 2265,
    ",L": 2266,
    "d[A]": 2267,
    "Area": 2268,
    "f,t": 2269,
    "[0,f": 2270,
    "p,m": 2271,
    "1,2,": 2272,
    "mgh": 2273,
    "PdV": 2274,
    "i,m": 2275,
    "ma": 2276,
    "fX": 2277,
    "pF": 2278,
    "i\\lambda": 2279,
    "Ref": 2280,
    "x.t": 2281,
    ",\\sigma": 2282,
    "Eq": 2283,
    ",E": 2284,
    ",l": 2285,
    ",t\\right": 2286,
    "\\pi,\\pi]": 2287,
    "md": 2288,
    "|S": 2289,
    "\\pm\\phi": 2290,
    "k[V]": 2291,
    "sc": 2292,
    "fgh": 2293,
    "[G,G]": 2294,
    "yj": 2295,
    "zk": 2296,
    "zt": 2297,
    "h\\left": 2298,
    "a\\right": 2299,
    "ks": 2300,
    ",...,u": 2301,
    ",i": 2302,
    "2R\\sin": 2303,
    "d,n": 2304,
    "a,2a,3a,": 2305,
    "1,y": 2306,
    "cS": 2307,
    "0.2": 2308,
    "RF": 2309,
    "n,k": 2310,
    "c\\in": 2311,
    "12,6,": 2312,
    "4j": 2313,
    "4.001": 2314,
    "Rx": 2315,
    "Tx": 2316,
    "load": 2317,
    "Sin": 2318,
    "we": 2319,
    "nV": 2320,
    "c\\sin\\theta": 2321,
    "\\left[T": 2322,
    ",m": 2323,
    "b,x": 2324,
    "0.85": 2325,
    "LFL": 2326,
    "|C": 2327,
    "2,4": 2328,
    "E,E": 2329,
    "sys": 2330,
    "vt\\cos\\theta": 2331,
    "k\\right": 2332,
    "t,i": 2333,
    "mix": 2334,
    "Res": 2335,
    "FA": 2336,
    "PG": 2337,
    "4AC": 2338,
    "L\\left": 2339,
    "j>|u|": 2340,
    "d\\neq": 2341,
    "NAV": 2342,
    "11,": 2343,
    "18,": 2344,
    "29,": 2345,
    "47,": 2346,
    "76,": 2347,
    "123,": 2348,
    "b\\right": 2349,
    "1,e": 2350,
    "Stab": 2351,
    "2,6": 2352,
    "G1": 2353,
    "Al": 2354,
    "M|z|": 2355,
    "R,\\theta": 2356,
    "s\\left": 2357,
    "kk": 2358,
    "H,C": 2359,
    "a\\theta": 2360,
    "ve": 2361,
    "mu": 2362,
    "exp\\left": 2363,
    "SB": 2364,
    "sl,v": 2365,
    "SG": 2366,
    "|3|": 2367,
    "|1|": 2368,
    "|2|": 2369,
    "c,t": 2370,
    "Gm": 2371,
    "MAX": 2372,
    "|C|": 2373,
    ",Ax": 2374,
    "\\in[": 2375,
    "RP": 2376,
    "rp": 2377,
    "By": 2378,
    "1.25": 2379,
    "3.9": 2380,
    "expr": 2381,
    ",G": 2382,
    "2A": 2383,
    ".M": 2384,
    "pf": 2385,
    "qf": 2386,
    ",...,q": 2387,
    ",op": 2388,
    "Bn": 2389,
    "f,g": 2390,
    "p0": 2391,
    "b0": 2392,
    "[H": 2393,
    "Tor": 2394,
    "N,M": 2395,
    "0.10": 2396,
    ",\\lambda": 2397,
    "Pb": 2398,
    "EV": 2399,
    "M\\left": 2400,
    "x,M": 2401,
    "j\\pi": 2402,
    "VI": 2403,
    "a,n": 2404,
    "j1": 2405,
    "j2": 2406,
    "Av": 2407,
    "bacd": 2408,
    "abdc": 2409,
    "R,R": 2410,
    "c\\mu": 2411,
    "fdr": 2412,
    "bn": 2413,
    "LC": 2414,
    "[\\mathrm": 2415,
    "var": 2416,
    "|q": 2417,
    "rr": 2418,
    "wdx": 2419,
    "RN": 2420,
    "p,1": 2421,
    "MB": 2422,
    "[h": 2423,
    "i\\": 2424,
    "bh": 2425,
    "PV": 2426,
    "FV": 2427,
    "020": 2428,
    "2rh": 2429,
    "mkT": 2430,
    "Ff": 2431,
    "iv": 2432,
    "s,s": 2433,
    ">k": 2434,
    "ET": 2435,
    "u.u": 2436,
    "Sv": 2437,
    "i2\\pi": 2438,
    "CB": 2439,
    "gr": 2440,
    "776": 2441,
    "pot": 2442,
    "GM\\left": 2443,
    "surr": 2444,
    "IMM": 2445,
    "Fp": 2446,
    "a,a]": 2447,
    "[s": 2448,
    "y\\neq": 2449,
    "2051": 2450,
    "BP": 2451,
    "sC": 2452,
    "0\\div": 2453,
    "NaN": 2454,
    "nH": 2455,
    "E\\left[x": 2456,
    "hc": 2457,
    "R[x]": 2458,
    "2,\\pi": 2459,
    "f1": 2460,
    "v,u": 2461,
    "k1": 2462,
    "k,s": 2463,
    "4E": 2464,
    "A.a": 2465,
    "Lu": 2466,
    "704": 2467,
    "576": 2468,
    ",\\cos": 2469,
    "1.4142s": 2470,
    "j,q": 2471,
    "j,t,q": 2472,
    "MAP": 2473,
    "Ad": 2474,
    "|\\sigma": 2475,
    "ef": 2476,
    "VT": 2477,
    "iut": 2478,
    "HP": 2479,
    "r,r": 2480,
    "PGL": 2481,
    "2,p": 2482,
    "0.75": 2483,
    "c>1": 2484,
    "Nc": 2485,
    "r\\neq": 2486,
    "1\\right\\": 2487,
    "AX": 2488,
    "|k|\\neq": 2489,
    "50i": 2490,
    "V\\mathrm": 2491,
    "down": 2492,
    ".1": 2493,
    "S,P": 2494,
    "t,d": 2495,
    "mod5": 2496,
    "v\\left": 2497,
    "L\\right": 2498,
    "BE": 2499,
    "[l]": 2500,
    "t,d,n": 2501,
    "\\log\\sigma": 2502,
    "d\\sigma": 2503,
    "GS": 2504,
    "....": 2505,
    "L,R": 2506,
    "Se": 2507,
    "b,d": 2508,
    "l]": 2509,
    "430": 2510,
    "Bi": 2511,
    "hL": 2512,
    "\\theta\\cos": 2513,
    "3\\sin": 2514,
    "cor": 2515,
    ",F": 2516,
    "|Y|": 2517,
    ">\\sigma": 2518,
    "Y,X": 2519,
    ",...,a": 2520,
    "mq": 2521,
    "23,41": 2522,
    "1.000": 2523,
    "0.253": 2524,
    "0.286": 2525,
    "fv": 2526,
    "8N": 2527,
    "m,P": 2528,
    "n,d": 2529,
    "5,5": 2530,
    "d\\Delta": 2531,
    "4s": 2532,
    "4sr": 2533,
    "up": 2534,
    "auth": 2535,
    "297": 2536,
    "os": 2537,
    "0,0,": 2538,
    "[Y": 2539,
    "p>2": 2540,
    "4\\Delta": 2541,
    "ty": 2542,
    "2\\Delta": 2543,
    "s\\in": 2544,
    "[4]": 2545,
    "\\lambda,i": 2546,
    "3A": 2547,
    "rad": 2548,
    "T\\in": 2549,
    "SNR": 2550,
    "sol": 2551,
    "A\\right": 2552,
    "XP": 2553,
    "PX": 2554,
    ",H": 2555,
    "0,1,2,": 2556,
    "so": 2557,
    ",...,c": 2558,
    "APC": 2559,
    "ABC": 2560,
    "0,b": 2561,
    "1,c": 2562,
    "cf": 2563,
    "3f": 2564,
    "b\\sin": 2565,
    "gcd": 2566,
    "i\\right": 2567,
    "t\\": 2568,
    ",V": 2569,
    "ge": 2570,
    "y\\left": 2571,
    "[A]": 2572,
    "2r\\sin\\left": 2573,
    "sd\\sigma": 2574,
    ",10": 2575,
    "s,\\pi": 2576,
    "HM": 2577,
    "[G": 2578,
    "[E][S]": 2579,
    "[ES]": 2580,
    "w\\right": 2581,
    "|H": 2582,
    "n,p": 2583,
    ",...,p": 2584,
    ",0\\right]": 2585,
    "x\\phi": 2586,
    "He": 2587,
    "c\\Delta": 2588,
    "CS": 2589,
    "b,a": 2590,
    "Sq": 2591,
    "P9": 2592,
    "LH": 2593,
    "BET": 2594,
    "g,1": 2595,
    "h,0": 2596,
    "base": 2597,
    "1\\mathrm": 2598,
    "pu": 2599,
    "x,y,": 2600,
    "GF": 2601,
    "E[Y]": 2602,
    "TdS": 2603,
    "G>0": 2604,
    "|n|": 2605,
    "t,a": 2606,
    "[T": 2607,
    "[F": 2608,
    "G\\sin": 2609,
    "sig": 2610,
    "B,C": 2611,
    "NI": 2612,
    "core": 2613,
    "gap": 2614,
    "ASE": 2615,
    "nN": 2616,
    "nkT": 2617,
    "TS": 2618,
    "j\\infty,": 2619,
    "j\\infty": 2620,
    "MRP": 2621,
    "A\\left": 2622,
    "||a": 2623,
    "mk": 2624,
    "k\\in\\": 2625,
    "k,k": 2626,
    "fs": 2627,
    "h,y": 2628,
    "Gr": 2629,
    "k,t": 2630,
    "|\\mu": 2631,
    "x,i,j": 2632,
    "...........": 2633,
    "NV": 2634,
    "w,b": 2635,
    "Rot": 2636,
    "h\\in": 2637,
    "3v": 2638,
    "2mE": 2639,
    "\\mu\\sin": 2640,
    "\\mu\\cos": 2641,
    "ijkl": 2642,
    ",sy": 2643,
    "rev": 2644,
    "L1": 2645,
    "i1": 2646,
    ".d": 2647,
    "\\log\\log": 2648,
    "TE": 2649,
    "299,792,458": 2650,
    "\\mu\\sigma": 2651,
    "0.1139": 2652,
    "1.12": 2653,
    "mnp": 2654,
    "char": 2655,
    "\\pm\\infty": 2656,
    "|c": 2657,
    "600": 2658,
    "Ma": 2659,
    ",m\\": 2660,
    ",\\": 2661,
    "\\left|M": 2662,
    "rt": 2663,
    "rT": 2664,
    "r\\sin": 2665,
    "CM": 2666,
    "ms": 2667,
    "3xy": 2668,
    ">b": 2669,
    "co": 2670,
    "Td": 2671,
    "4\\lambda": 2672,
    "2190": 2673,
    "Gen": 2674,
    "X,t": 2675,
    "gz": 2676,
    "[1,": 2677,
    "\\infty]": 2678,
    "rms": 2679,
    "VC": 2680,
    "8L": 2681,
    "||f": 2682,
    "|r": 2683,
    "q,q": 2684,
    "H[i": 2685,
    "EG": 2686,
    "wx": 2687,
    "w]": 2688,
    "1.8\\pm": 2689,
    ",\\phi": 2690,
    "\\left|z\\right|": 2691,
    "N,T,M,S": 2692,
    "Eq.3": 2693,
    "sinh": 2694,
    "2,3": 2695,
    "p,q,Tr": 2696,
    "C[a,b]": 2697,
    "A[1]": 2698,
    "PC": 2699,
    "p,T": 2700,
    "FTLE": 2701,
    "\\cos\\theta\\right": 2702,
    "net": 2703,
    "CR": 2704,
    "us": 2705,
    "d\\sin": 2706,
    "kd": 2707,
    "k,d": 2708,
    "1...3": 2709,
    "v\\Delta": 2710,
    "opt": 2711,
    "d,d": 2712,
    ",za": 2713,
    ",M\\": 2714,
    "Lf": 2715,
    "jkl": 2716,
    "Aa": 2717,
    "ci,x,y": 2718,
    "kv": 2719,
    "TM": 2720,
    "1,y\\pm": 2721,
    "1,z": 2722,
    "ju": 2723,
    "null": 2724,
    "norm": 2725,
    "0.12": 2726,
    "\\left|f": 2727,
    "||xy||": 2728,
    "||x||||y||": 2729,
    ">m": 2730,
    "[m]": 2731,
    "ACA": 2732,
    "|2": 2733,
    "|3": 2734,
    "|4": 2735,
    "|14": 2736,
    "3.0": 2737,
    "5b": 2738,
    "2,y": 2739,
    "2.25": 2740,
    "1836": 2741,
    "tp": 2742,
    "\\left|S": 2743,
    "|1": 2744,
    "MPC": 2745,
    "2xc": 2746,
    "qI": 2747,
    "x,0": 2748,
    "375": 2749,
    "\\sigma\\right": 2750,
    "I[f": 2751,
    "spw": 2752,
    "[\\pi": 2753,
    "3125": 2754,
    "vw": 2755,
    "wv": 2756,
    "|Y": 2757,
    "G,C": 2758,
    "EXX": 2759,
    "j\\Delta": 2760,
    ",o": 2761,
    "mln": 2762,
    "Mx": 2763,
    "ru": 2764,
    "d\\mu": 2765,
    "vn": 2766,
    "qN": 2767,
    "1440": 2768,
    "|v": 2769,
    "0,0,0": 2770,
    "c>": 2771,
    "s\\in\\": 2772,
    "dH\\left": 2773,
    "Vdp": 2774,
    "dBm": 2775,
    "113.0": 2776,
    "10.0": 2777,
    ",N": 2778,
    "A,B,C": 2779,
    "4,1": 2780,
    "jobs": 2781,
    "a\\div": 2782,
    "4\\left": 2783,
    "sI": 2784,
    "ijl": 2785,
    "[1]": 2786,
    "[M]": 2787,
    "T\\left": 2788,
    "n\\right": 2789,
    ",...,P": 2790,
    "k>": 2791,
    "877": 2792,
    "n1": 2793,
    "4bc": 2794,
    "x,y,z,w": 2795,
    "3,7": 2796,
    "V,T": 2797,
    "kj": 2798,
    "Hf": 2799,
    "2.5": 2800,
    "i\\pm": 2801,
    "Hn": 2802,
    "FL": 2803,
    "F[e": 2804,
    "gH": 2805,
    "2G": 2806,
    ">0.01": 2807,
    ",...,m": 2808,
    "x,x": 2809,
    "j,n": 2810,
    "h,a": 2811,
    "R,t": 2812,
    "32.2": 2813,
    "1ft": 2814,
    "0.4402": 2815,
    "0.4031": 2816,
    "3,opt": 2817,
    "X,A": 2818,
    "wet": 2819,
    "|d": 2820,
    "v|": 2821,
    "mul": 2822,
    "\\pm\\pi": 2823,
    "||\\mu": 2824,
    "|\\mu|": 2825,
    "HG": 2826,
    "IR": 2827,
    "pn": 2828,
    "u\\right": 2829,
    "32x": 2830,
    "MC": 2831,
    "r,m": 2832,
    "vdx": 2833,
    "a,c": 2834,
    "\\Delta\\sigma": 2835,
    "Mf": 2836,
    "N,P": 2837,
    "int": 2838,
    "t,0": 2839,
    "z[k]": 2840,
    "[k]": 2841,
    "v[k]g[0]": 2842,
    "350": 2843,
    "PAP": 2844,
    "1,0,0,0": 2845,
    ",...,e": 2846,
    "Vol": 2847,
    "intf": 2848,
    "ESL": 2849,
    "g\\left": 2850,
    "g,f": 2851,
    "1,x,x": 2852,
    "3M": 2853,
    "kh": 2854,
    "A>": 2855,
    "hR": 2856,
    "Fi": 2857,
    "Ft": 2858,
    ",dA": 2859,
    "pr": 2860,
    "t>t": 2861,
    "rm": 2862,
    "s\\infty": 2863,
    "CBR": 2864,
    "phi": 2865,
    "ai": 2866,
    "B\\left": 2867,
    "yxyx": 2868,
    "t,f": 2869,
    "Bird": 2870,
    "f\\neq": 2871,
    "xG": 2872,
    "0j": 2873,
    "CF": 2874,
    "Hct": 2875,
    "yp": 2876,
    "rx": 2877,
    "3w": 2878,
    "480": 2879,
    "II": 2880,
    "X,\\mu": 2881,
    "R\\left": 2882,
    "e\\Delta": 2883,
    "su": 2884,
    "ESR": 2885,
    "[\\sin": 2886,
    "0.30": 2887,
    "m,k": 2888,
    "std": 2889,
    "vL": 2890,
    "v1": 2891,
    "vs": 2892,
    "v2": 2893,
    "cv": 2894,
    "n,1,p": 2895,
    "iak": 2896,
    "208": 2897,
    "Cx": 2898,
    "4abx": 2899,
    "d\\right": 2900,
    "1!": 2901,
    "9.2345": 2902,
    "0.2345": 2903,
    "02": 2904,
    "Fu": 2905,
    "2log": 2906,
    "pb": 2907,
    "||S": 2908,
    ",cq": 2909,
    "ker": 2910,
    "g,g": 2911,
    "2GM": 2912,
    "x,k": 2913,
    "quot": 2914,
    "G|": 2915,
    "r\\left": 2916,
    "M,x": 2917,
    "d\\lambda": 2918,
    "[i": 2919,
    "srgb": 2920,
    "IN": 2921,
    "0,k": 2922,
    "nB": 2923,
    "F,G": 2924,
    "k[\\mathrm": 2925,
    "Ly": 2926,
    "\\Delta\\phi": 2927,
    "mnl": 2928,
    "[\\mu": 2929,
    "fR": 2930,
    "n\\Delta": 2931,
    "z,\\mathrm": 2932,
    "m\\theta": 2933,
    "ABCA": 2934,
    "v,x": 2935,
    "f.\\lambda": 2936,
    "x[k]": 2937,
    "0,P": 2938,
    "x,n": 2939,
    "H\\left": 2940,
    "X\\right": 2941,
    "\\infty,P": 2942,
    "x,P": 2943,
    "XA": 2944,
    "xc": 2945,
    "[1,m]": 2946,
    "GF\\left": 2947,
    "Ef": 2948,
    "||\\mathrm": 2949,
    "tA": 2950,
    "t\\mu": 2951,
    "E\\right": 2952,
    "ML": 2953,
    "skid": 2954,
    "nh": 2955,
    "Lw": 2956,
    "Ld": 2957,
    "CEi": 2958,
    "hs": 2959,
    "1260r": 2960,
    "105r": 2961,
    "0.3>": 2962,
    "a\\pm": 2963,
    "c\\pm": 2964,
    "b\\div": 2965,
    "[p]": 2966,
    "2gh": 2967,
    "NE": 2968,
    "t>0": 2969,
    ",...,f": 2970,
    "j\\phi": 2971,
    "x,\\mu,\\sigma": 2972,
    "N0": 2973,
    ">c": 2974,
    "\\neq\\lambda": 2975,
    "ss": 2976,
    "inc": 2977,
    "[n,k]": 2978,
    "\\phi\\": 2979,
    "\\phi,\\theta": 2980,
    "B,\\pi": 2981,
    "Aut": 2982,
    "0.95": 2983,
    "0.143": 2984,
    "x[n]": 2985,
    "[T]": 2986,
    "hold": 2987,
    "0.38": 2988,
    "IMC": 2989,
    "m1": 2990,
    "|I|": 2991,
    "surf": 2992,
    "cosh": 2993,
    "B[A,C]": 2994,
    "|m": 2995,
    "0.20": 2996,
    "HA": 2997,
    "LA": 2998,
    "HB": 2999,
    "es": 3000,
    "Ai": 3001,
    ",3m": 3002,
    "j,t": 3003,
    "[N]": 3004,
    "Vdx": 3005,
    "[0,2\\pi]": 3006,
    "a,q,0": 3007,
    "n,r,": 3008,
    "k,n,r,\\theta": 3009,
    "TV": 3010,
    "y,t": 3011,
    "b\\log": 3012,
    "BG": 3013,
    "|p|": 3014,
    "S\\left": 3015,
    "Y\\right": 3016,
    "26!": 3017,
    "\\tan\\phi": 3018,
    "x,f": 3019,
    "ur": 3020,
    "ig": 3021,
    "1C1": 3022,
    "R\\cos": 3023,
    "n,i": 3024,
    "P,x": 3025,
    "FR": 3026,
    "RPM": 3027,
    "CL": 3028,
    "2\\pi\\theta": 3029,
    "z,m": 3030,
    "z\\phi": 3031,
    "919": 3032,
    "uR": 3033,
    "Sys": 3034,
    "xs": 3035,
    "Fdr": 3036,
    "k]": 3037,
    "NL": 3038,
    "n>k": 3039,
    "8,4": 3040,
    "G,G": 3041,
    "BE3": 3042,
    "s,v": 3043,
    ",t\\": 3044,
    "X,\\Delta": 3045,
    "x,t,\\theta": 3046,
    "SR": 3047,
    "sech": 3048,
    "nFE": 3049,
    "atan2": 3050,
    "Au": 3051,
    "sF": 3052,
    "kA": 3053,
    "A\\Delta": 3054,
    "h\\right": 3055,
    "NP": 3056,
    ",...,i": 3057,
    "A,B": 3058,
    "|s": 3059,
    ">R": 3060,
    "2hc": 3061,
    ",2n": 3062,
    "PR": 3063,
    "f\\": 3064,
    "Sl": 3065,
    "1.20]": 3066,
    "[12.3,7.6]": 3067,
    "ff": 3068,
    "TP": 3069,
    "ord": 3070,
    "EF": 3071,
    "red": 3072,
    "R[f": 3073,
    "V,p": 3074,
    "x,t\\right": 3075,
    "[0,t]": 3076,
    "||e": 3077,
    "x,X": 3078,
    "bw": 3079,
    "xv": 3080,
    "xw": 3081,
    "ion": 3082,
    "||A||": 3083,
    "||B||": 3084,
    "Pv": 3085,
    "qj": 3086,
    "[r,r": 3087,
    "2lm": 3088,
    "[f]": 3089,
    "x,\\sigma": 3090,
    "x,1": 3091,
    "d,c": 3092,
    "sd": 3093,
    "i,j,v": 3094,
    "q|": 3095,
    "1,2,3,": 3096,
    "4096": 3097,
    "k[x": 3098,
    "vac": 3099,
    "2bc": 3100,
    "fp": 3101,
    "c,d": 3102,
    "NPV": 3103,
    "mode": 3104,
    "SFC": 3105,
    "uvw": 3106,
    "4ik": 3107,
    "iw": 3108,
    "|p": 3109,
    "tI": 3110,
    "0,...,": 3111,
    "6561": 3112,
    "[dx": 3113,
    "Cat": 3114,
    "h[n]": 3115,
    "nT": 3116,
    "u[n]": 3117,
    "Em": 3118,
    "rec": 3119,
    "ATX": 3120,
    "mag": 3121,
    ">a": 3122,
    "RxR": 3123,
    "n,j": 3124,
    "c,b": 3125,
    "s,a": 3126,
    "\\left|x\\right|": 3127,
    "[X,Y]": 3128,
    ",k\\": 3129,
    "|G": 3130,
    "Head": 3131,
    "PHM": 3132,
    "k\\pi": 3133,
    "u,x": 3134,
    "My": 3135,
    "Cv": 3136,
    "476": 3137,
    "size": 3138,
    "23x": 3139,
    "13,": 3140,
    "21,": 3141,
    "34,": 3142,
    "55,": 3143,
    "89,": 3144,
    "144,": 3145,
    "x1": 3146,
    ",1]": 3147,
    "TL": 3148,
    "iC": 3149,
    "conv": 3150,
    "ch": 3151,
    "3.5": 3152,
    "1,2,3,4": 3153,
    "\\theta\\log": 3154,
    "MA": 3155,
    "kar": 3156,
    "p\\in": 3157,
    "cs": 3158,
    "oi": 3159,
    "0.15": 3160,
    "y,n": 3161,
    "ro": 3162,
    "coth": 3163,
    "\\pi\\right": 3164,
    "z,1": 3165,
    "k,0": 3166,
    "z\\in": 3167,
    "1,m": 3168,
    "GMm": 3169,
    "BS": 3170,
    "T>T": 3171,
    "AGM": 3172,
    "1200": 3173,
    "x,u": 3174,
    "Age": 3175,
    "kG": 3176,
    "X[n]": 3177,
    "232": 3178,
    "F[y]": 3179,
    "Ak": 3180,
    "R1": 3181,
    "R2": 3182,
    "Sdx": 3183,
    "300": 3184,
    "14z": 3185,
    "\\sigma\\left": 3186,
    "\\left|y": 3187,
    "[P]": 3188,
    "SC": 3189,
    "cond": 3190,
    "eV": 3191,
    "pIC": 3192,
    "wp": 3193,
    "B|": 3194,
    "2kn": 3195,
    "260": 3196,
    "3000": 3197,
    "[I": 3198,
    "A]": 3199,
    "0.22": 3200,
    "S[i": 3201,
    "N\\Delta": 3202,
    "283": 3203,
    "204": 3204,
    "\\sin\\left[": 3205,
    "dt\\right]dt": 3206,
    "Sph": 3207,
    "ATM": 3208,
    "5,s": 3209,
    "sum": 3210,
    "[I]": 3211,
    ",N\\": 3212,
    "k,r": 3213,
    "q>": 3214,
    "9p": 3215,
    "[\\sigma]": 3216,
    "Sc": 3217,
    "4ax": 3218,
    "SL": 3219,
    "120f": 3220,
    "|E|": 3221,
    "gate8": 3222,
    "|\\Delta": 3223,
    "Eq.1": 3224,
    "\\in\\left": 3225,
    "0,1\\right": 3226,
    "E,m": 3227,
    "HF": 3228,
    "[1,n]": 3229,
    "5y": 3230,
    "f2": 3231,
    "0,0.5,1,1.5,": 3232,
    "E\\left": 3233,
    ",...,w": 3234,
    "CHSH": 3235,
    "left": 3236,
    "BF": 3237,
    "AF": 3238,
    "P1": 3239,
    "1.4": 3240,
    "beat": 3241,
    "\\left[p": 3242,
    "vf": 3243,
    "A[t": 3244,
    "880": 3245,
    "k,j": 3246,
    "r,0": 3247,
    ",...,k": 3248,
    ",...,X": 3249,
    "inf": 3250,
    "d[B]": 3251,
    "1,2n": 3252,
    "v|t|": 3253,
    "RI": 3254,
    "w,v": 3255,
    "nr": 3256,
    ">u": 3257,
    "bit": 3258,
    "R[t": 3259,
    "End": 3260,
    "631": 3261,
    ".X": 3262,
    "1,0,0,": 3263,
    ",0,1": 3264,
    "2,0,0": 3265,
    ">e": 3266,
    "IB": 3267,
    "sk": 3268,
    "11n": 3269,
    "fx": 3270,
    "|t": 3271,
    "GS4": 3272,
    "r\\cos\\left": 3273,
    "73n": 3274,
    "22n": 3275,
    "a,b,c,": 3276,
    "k>0": 3277,
    "FP": 3278,
    "499": 3279,
    "6v": 3280,
    "x\\in\\": 3281,
    "el": 3282,
    "sup": 3283,
    "sub": 3284,
    "10!": 3285,
    "3,628,800": 3286,
    "c>0": 3287,
    "x,xy": 3288,
    "x,y\\in": 3289,
    "3.25": 3290,
    "XB": 3291,
    "cw": 3292,
    "MRT": 3293,
    "[v]": 3294,
    "\\mu,\\sigma": 3295,
    "n,g": 3296,
    ",...x": 3297,
    "253": 3298,
    "NM": 3299,
    "k,h": 3300,
    "cI": 3301,
    "13a": 3302,
    "14a": 3303,
    "11a": 3304,
    "1j": 3305,
    "k,m": 3306,
    "G2": 3307,
    "5\\sin": 3308,
    "5\\theta": 3309,
    "adj": 3310,
    "Pi": 3311,
    "sY": 3312,
    "\\theta,\\phi": 3313,
    "gc": 3314,
    "nd": 3315,
    "g\\mu": 3316,
    "w,u": 3317,
    "315": 3318,
    "An": 3319,
    "\\left[x": 3320,
    "A\\cos": 3321,
    "p,i": 3322,
    "32.45": 3323,
    "20\\log": 3324,
    "sen": 3325,
    "|w|": 3326,
    "\\sigma>\\sigma": 3327,
    "4\\pm": 3328,
    "f[X]": 3329,
    "T,P": 3330,
    "wlp": 3331,
    "S,R": 3332,
    "St": 3333,
    "t,1": 3334,
    "x>\\mu": 3335,
    "30m": 3336,
    "ret": 3337,
    ",H]": 3338,
    "z,y": 3339,
    "qB": 3340,
    "N\\pi": 3341,
    "kn": 3342,
    "y,z\\right": 3343,
    "a,1": 3344,
    "LEL": 3345,
    "A|": 3346,
    "\\left|y\\right|": 3347,
    "C1": 3348,
    ">I": 3349,
    "PT": 3350,
    "tanh": 3351,
    "dis": 3352,
    "c,p": 3353,
    "ob": 3354,
    "m,j": 3355,
    "A0": 3356,
    "303": 3357,
    "clo": 3358,
    "16d": 3359,
    "8d": 3360,
    ">w": 3361,
    "Ytd": 3362,
    "se": 3363,
    "mL": 3364,
    "1.09": 3365,
    "n\\lambda": 3366,
    "code": 3367,
    "T,i": 3368,
    "rb": 3369,
    "eX": 3370,
    "heat": 3371,
    "m2": 3372,
    "9R": 3373,
    "ya": 3374,
    "h\\": 3375,
    "SV": 3376,
    "mean": 3377,
    "ft\\": 3378,
    "ze": 3379,
    "||T": 3380,
    "1,b": 3381,
    "sRC": 3382,
    "160x": 3383,
    "|T|": 3384,
    ",0\\right": 3385,
    "la": 3386,
    ">f": 3387,
    ",1,": 3388,
    "x\\log": 3389,
    "Y\\left": 3390,
    "X\\left": 3391,
    "Px": 3392,
    "3L": 3393,
    "6EI": 3394,
    "agh": 3395,
    "dfg": 3396,
    "beh": 3397,
    "cef": 3398,
    "row": 3399,
    "T,V,\\": 3400,
    "q,u": 3401,
    "col": 3402,
    "BB": 3403,
    "\\left[1,": 3404,
    "FVA": 3405,
    "X,d": 3406,
    "reg": 3407,
    "spo": 3408,
    "a,q,x": 3409,
    "q>2": 3410,
    "Xr": 3411,
    "jm": 3412,
    ",...,z": 3413,
    "comp": 3414,
    "0,l": 3415,
    "d[ES]": 3416,
    "cat": 3417,
    "Tk": 3418,
    "[f,g]": 3419,
    "vt\\right": 3420,
    "i\\Delta": 3421,
    "2ay": 3422,
    ",a,g": 3423,
    "x\\tan": 3424,
    "s,o": 3425,
    "4v": 3426,
    "Cy": 3427,
    "sun": 3428,
    "H,T\\": 3429,
    "kV": 3430,
    "bey": 3431,
    "Be": 3432,
    "a\\mathrm": 3433,
    "Tn": 3434,
    "20r": 3435,
    "FN": 3436,
    "n,r,\\theta": 3437,
    "xg": 3438,
    "or": 3439,
    "|V": 3440,
    "ub": 3441,
    "||p": 3442,
    "1.43": 3443,
    ",n\\": 3444,
    "I>0": 3445,
    "Aq": 3446,
    "a,m": 3447,
    "8!": 3448,
    "12!": 3449,
    "k,i": 3450,
    "g\\phi": 3451,
    "tol": 3452,
    "1.48": 3453,
    "As": 3454,
    "zp": 3455,
    "|i|": 3456,
    "syn": 3457,
    "i,w": 3458,
    "n,2": 3459,
    "star": 3460,
    "CI": 3461,
    "[l": 3462,
    "SI": 3463,
    "[ml": 3464,
    "A[i": 3465,
    "A\\sin": 3466,
    "T\\right": 3467,
    "0,1,": 3468,
    "kF": 3469,
    "[S": 3470,
    "\\pi,B": 3471,
    "9b": 3472,
    "8b": 3473,
    "sim": 3474,
    "AI": 3475,
    "LP": 3476,
    "M,g": 3477,
    "odd": 3478,
    "ssrt": 3479,
    "t>": 3480,
    "3axy": 3481,
    "5F": 3482,
    "rf": 3483,
    "a\\Delta": 3484,
    "Ls": 3485,
    "GB": 3486,
    "rest": 3487,
    "03": 3488,
    "T\\Delta": 3489,
    "s]": 3490,
    "d,a,n": 3491,
    "TY": 3492,
    "w\\log": 3493,
    "LS": 3494,
    "NC": 3495,
    "Yi": 3496,
    "PL": 3497,
    "X,Y\\": 3498,
    "2n,F": 3499,
    "t,t": 3500,
    "6\\div": 3501,
    "x\\cos\\theta": 3502,
    "y\\sin\\theta": 3503,
    "q>p": 3504,
    "z,x": 3505,
    "near": 3506,
    "BA": 3507,
    "32\\pi": 3508,
    "ws": 3509,
    "a,b\\right\\": 3510,
    "d]r": 3511,
    "2d]r": 3512,
    "C\\mathrm": 3513,
    "v[": 3514,
    "bcs": 3515,
    "bc,bd": 3516,
    "poly": 3517,
    "2\\pi\\sigma": 3518,
    "N,h,x,e": 3519,
    "LE": 3520,
    "|L|": 3521,
    "|V|": 3522,
    ".a": 3523,
    "AL": 3524,
    "3,4,5": 3525,
    "xvy": 3526,
    "hmcr": 3527,
    "dx\\right": 3528,
    "[v][w]": 3529,
    "E\\left[X": 3530,
    "L,t": 3531,
    "RCM": 3532,
    "qV": 3533,
    "k[t]": 3534,
    "1,f": 3535,
    "Axe": 3536,
    "y[n]": 3537,
    "y[n": 3538,
    "x[n": 3539,
    "atm": 3540,
    "b,A": 3541,
    "path": 3542,
    "Te": 3543,
    "3xyz": 3544,
    "i,0": 3545,
    "t,q": 3546,
    "u,v,d": 3547,
    "399": 3548,
    "2N,": 3549,
    "yt": 3550,
    "p,r": 3551,
    "vdv": 3552,
    "now": 3553,
    "then": 3554,
    "r,n": 3555,
    ",...,S": 3556,
    "G,k": 3557,
    "Aff": 3558,
    "\\left[\\cos\\left": 3559,
    "R\\tan\\theta\\right": 3560,
    "i\\sin\\left": 3561,
    "a\\sin\\left": 3562,
    "m>0": 3563,
    "8P": 3564,
    "r\\in": 3565,
    "f|": 3566,
    "t\\in": 3567,
    "IS": 3568,
    "s,T": 3569,
    "2n\\sin": 3570,
    "b\\lambda": 3571,
    "trt": 3572,
    "CNR": 3573,
    "612": 3574,
    "arg": 3575,
    ">t": 3576,
    "MSE": 3577,
    "Fr": 3578,
    "1922": 3579,
    "p>1": 3580,
    "g,h": 3581,
    "wr": 3582,
    "Hx": 3583,
    "14.1014": 3584,
    "kTC": 3585,
    "mob": 3586,
    "x,u,u": 3587,
    ",\\mu": 3588,
    "r]": 3589,
    "n0": 3590,
    "c\\right": 3591,
    "mt": 3592,
    "\\log|u": 3593,
    "sign": 3594,
    "5000": 3595,
    "p,v": 3596,
    "b\\left": 3597,
    "0.50": 3598,
    "j0.50": 3599,
    "2,3,": 3600,
    "Prob": 3601,
    "pure": 3602,
    "p,w": 3603,
    ",y\\right": 3604,
    "pv": 3605,
    ",...,G": 3606,
    "blue": 3607,
    "1T": 3608,
    "1\\div": 3609,
    "0,1,1": 3610,
    "[m,": 3611,
    "a,k": 3612,
    "|X|": 3613,
    "1,2,...,m\\": 3614,
    "wR": 3615,
    "F\\in": 3616,
    "p,q,r": 3617,
    "prt": 3618,
    "ym": 3619,
    "xm": 3620,
    "2.5\\log": 3621,
    "A[i,j]": 3622,
    "Mg": 3623,
    "R>r": 3624,
    "Ind": 3625,
    ",...,n": 3626,
    "2kc": 3627,
    "[e": 3628,
    ",[e": 3629,
    "]]]": 3630,
    ",[f": 3631,
    "s\\right": 3632,
    "3V": 3633,
    "35r": 3634,
    "60r": 3635,
    "30r": 3636,
    "iB": 3637,
    "a,b,c\\": 3638,
    "sm": 3639,
    "fu": 3640,
    "ox,0": 3641,
    "fu,1": 3642,
    "m,l": 3643,
    "t,x,y,z": 3644,
    "GR": 3645,
    "BV": 3646,
    "HC": 3647,
    "\\sin\\theta,\\sin": 3648,
    "gl": 3649,
    "n,F": 3650,
    "n,x": 3651,
    ">\\theta": 3652,
    "\\pi\\left": 3653,
    "move": 3654,
    "3600": 3655,
    "g,0": 3656,
    "h,1": 3657,
    "xxx": 3658,
    "1.0004": 3659,
    "4aE": 3660,
    "y,y": 3661,
    "9r": 3662,
    "L2": 3663,
    "abs": 3664,
    "\\mu\\left": 3665,
    "x,i": 3666,
    "emp": 3667,
    "Mn": 3668,
    "1.66": 3669,
    "2ky": 3670,
    "rd": 3671,
    ".w": 3672,
    "k\\neq": 3673,
    "N,d": 3674,
    "T[h": 3675,
    "ml": 3676,
    "RNN": 3677,
    "1.6\\pm": 3678,
    "320x": 3679,
    "C\\sigma": 3680,
    "t,k": 3681,
    "n>N": 3682,
    "x,b": 3683,
    ">v": 3684,
    "acdb": 3685,
    "...P": 3686,
    "3ay": 3687,
    "2az": 3688,
    "cal": 3689,
    "veN": 3690,
    "LV": 3691,
    "a,b,k": 3692,
    "0.042": 3693,
    "n,r": 3694,
    "8T": 3695,
    "c>a": 3696,
    "Rt\\cos": 3697,
    "fsp": 3698,
    "r,x\\right": 3699,
    "s,\\mu": 3700,
    "Aw": 3701,
    "PY": 3702,
    "Mc": 3703,
    "[q]": 3704,
    "r,x": 3705,
    "h|": 3706,
    "4.0": 3707,
    "0.98": 3708,
    "x,y,y": 3709,
    ",kv": 3710,
    "BPA": 3711,
    "[g,h]": 3712,
    "Pic": 3713,
    "io": 3714,
    "t,p": 3715,
    "pqr": 3716,
    "[H]": 3717,
    "2v\\sin\\theta": 3718,
    "222": 3719,
    "|q|B": 3720,
    "[3k": 3721,
    "2\\sin\\theta\\cos\\theta": 3722,
    "cP": 3723,
    "cu": 3724,
    "0,u": 3725,
    "0.99": 3726,
    "YA": 3727,
    "data": 3728,
    "|M": 3729,
    "x,\\mu": 3730,
    "hl": 3731,
    "pass": 3732,
    "pas": 3733,
    "jkx": 3734,
    "LI": 3735,
    "[a,y]": 3736,
    ",\\Delta": 3737,
    "5R": 3738,
    "par": 3739,
    "ik|x|": 3740,
    "A\\neq": 3741,
    "Hc": 3742,
    "AP": 3743,
    "\\left|I": 3744,
    "m\\Delta": 3745,
    "vi": 3746,
    "a,0": 3747,
    "[85": 3748,
    "80]": 3749,
    "fC": 3750,
    "ri": 3751,
    "n>j": 3752,
    "L,R\\": 3753,
    "N\\left": 3754,
    "d\\pi": 3755,
    "qs": 3756,
    "be": 3757,
    "pre": 3758,
    "[M": 3759,
    "ox": 3760,
    "proj": 3761,
    "e0": 3762,
    "qE": 3763,
    "370": 3764,
    "x,s": 3765,
    "0.5\\pi": 3766,
    "|P|": 3767,
    "f,g\\": 3768,
    "[C": 3769,
    "6r": 3770,
    "3g": 3771,
    ">3": 3772,
    "MPGe": 3773,
    "w1": 3774,
    "w2": 3775,
    "k2": 3776,
    "j,1": 3777,
    "S\\in": 3778,
    "3\\left": 3779,
    "sCR": 3780,
    "Sun": 3781,
    "2|A|": 3782,
    "\\infty,a": 3783,
    "b,j": 3784,
    "Nr": 3785,
    "2.56": 3786,
    "X,x": 3787,
    "w,x,y,z": 3788,
    "MT": 3789,
    "nRT": 3790,
    "1,1,0": 3791,
    "4\\pi\\left": 3792,
    "\\sigma,S,C\\right": 3793,
    "kdt": 3794,
    "P,V": 3795,
    "MX": 3796,
    "8E": 3797,
    "650": 3798,
    "i>j": 3799,
    "E\\Delta": 3800,
    "Xe": 3801,
    "2vwyz": 3802,
    "2wuzx": 3803,
    "2uvxy": 3804,
    "3GM": 3805,
    "CPP": 3806,
    "CVR": 3807,
    "3500": 3808,
    "[6]": 3809,
    "n,q,x": 3810,
    "321": 3811,
    "312": 3812,
    "|AB|": 3813,
    "n,d,w": 3814,
    "mmm": 3815,
    "VaR": 3816,
    "...B": 3817,
    ",...,B": 3818,
    "line": 3819,
    "[HA]": 3820,
    "\\Delta\\lambda": 3821,
    "x,m": 3822,
    "4bd": 3823,
    "13!": 3824,
    "a>b": 3825,
    "xxt": 3826,
    "1,1,1,": 3827,
    "1,2,3": 3828,
    "2,1,5": 3829,
    "|i": 3830,
    "L|x": 3831,
    "\\lambda,1": 3832,
    "aer": 3833,
    "mol": 3834,
    "\\left[X": 3835,
    "uv,k": 3836,
    "440": 3837,
    "A,i,j": 3838,
    "j\\in\\": 3839,
    "|j": 3840,
    "spB": 3841,
    "\\theta,r": 3842,
    "[p": 3843,
    "i,c": 3844,
    "415": 3845,
    "Itd": 3846,
    "Af": 3847,
    ">\\left": 3848,
    "ls": 3849,
    "Fe": 3850,
    "bd\\phi": 3851,
    "[0,x]": 3852,
    "ant": 3853,
    "||d\\phi||": 3854,
    "t,s\\right": 3855,
    "E\\left\\": 3856,
    "cdt": 3857,
    "Pu": 3858,
    "hub": 3859,
    "Cs": 3860,
    "RCs": 3861,
    "qp": 3862,
    "s\\neq": 3863,
    "0,A": 3864,
    "\\mu\\in": 3865,
    "0.0050": 3866,
    "1.882x": 3867,
    "2.9088": 3868,
    "Cl": 3869,
    "g\\tan\\theta": 3870,
    "true": 3871,
    "10\\log": 3872,
    "x,N": 3873,
    "14.18": 3874,
    "|f|": 3875,
    "\\sin\\theta\\right": 3876,
    "Xy": 3877,
    "T,t": 3878,
    "e\\right": 3879,
    "d[X": 3880,
    "|\\lambda|": 3881,
    "||A": 3882,
    "m\\in": 3883,
    "[Y]": 3884,
    "qh": 3885,
    "a1": 3886,
    "cap": 3887,
    "1,t,t": 3888,
    "Ap": 3889,
    "|2q|B": 3890,
    "15d": 3891,
    "e\\in": 3892,
    "q,r": 3893,
    "x\\div": 3894,
    "s,\\Delta": 3895,
    "E\\neq": 3896,
    "k[A]": 3897,
    "225": 3898,
    "0.5\\left": 3899,
    "5959": 3900,
    "xlog": 3901,
    "X,F": 3902,
    "1010": 3903,
    "E\\in": 3904,
    "k[x,y]": 3905,
    "eS": 3906,
    "3h": 3907,
    "Tf": 3908,
    "0,1,2,3": 3909,
    "rk": 3910,
    "jh": 3911,
    "d>1": 3912,
    "2|r": 3913,
    "dt]": 3914,
    "C,i": 3915,
    "SP": 3916,
    "liq": 3917,
    "[R]": 3918,
    "ee": 3919,
    "11f": 3920,
    "a>a": 3921,
    "TB": 3922,
    "VN": 3923,
    "1,000,000": 3924,
    "BM": 3925,
    "Ch": 3926,
    "u,e": 3927,
    "\\neq\\infty": 3928,
    "G]": 3929,
    "X,R": 3930,
    "G,M": 3931,
    "ct,": 3932,
    "0.63": 3933,
    "Y[\\mathrm": 3934,
    "||\\sin\\theta": 3935,
    "u,z": 3936,
    "Tv": 3937,
    "r,z": 3938,
    "k\\lambda": 3939,
    "AH": 3940,
    "223": 3941,
    "2,j": 3942,
    "[j]": 3943,
    "2as": 3944,
    "Rh": 3945,
    "E\\": 3946,
    "hw": 3947,
    ",\\infty": 3948,
    "Eh": 3949,
    "kRT": 3950,
    "v\\in": 3951,
    "2,F": 3952,
    "8000": 3953,
    "2a\\Delta": 3954,
    "3\\cos\\theta": 3955,
    "r\\sin\\theta\\cos\\phi": 3956,
    "3G": 3957,
    "i>0": 3958,
    "P,L,I": 3959,
    "res": 3960,
    "VX": 3961,
    "kq": 3962,
    "med": 3963,
    "rn": 3964,
    "[e]": 3965,
    "|v|": 3966,
    "2Gm": 3967,
    "F[r]": 3968,
    "i,t": 3969,
    "ry": 3970,
    "|m|": 3971,
    "4N\\mu": 3972,
    "EA": 3973,
    "n\\": 3974,
    "C||x": 3975,
    "586": 3976,
    "2nx": 3977,
    "7f": 3978,
    "32f": 3979,
    "12f": 3980,
    "qk": 3981,
    "ct,x,y,z": 3982,
    "n,q": 3983,
    "n,G": 3984,
    "Spec": 3985,
    "h,i": 3986,
    "c,i": 3987,
    "corr": 3988,
    "P2": 3989,
    "N]": 3990,
    "bias": 3991,
    "Rxx": 3992,
    "EAC": 3993,
    "t,r": 3994,
    "2nd": 3995,
    "EL": 3996,
    "laea": 3997,
    "2,m": 3998,
    "u\\left": 3999,
    "Rf": 4000,
    "x,d": 4001,
    "Fv": 4002,
    "peak": 4003,
    "PN": 4004,
    "rP": 4005,
    "2d\\sin\\theta": 4006,
    "G,q,g": 4007,
    "rY": 4008,
    "[z": 4009,
    "7\\sin": 4010,
    "p,u": 4011,
    "a,b,z": 4012,
    "m,q,n": 4013,
    "t,V": 4014,
    "m\\neq": 4015,
    "cos\\theta": 4016,
    "Cr": 4017,
    "Rord": 4018,
    ",\\mathrm": 4019,
    "Ab": 4020,
    "j,0": 4021,
    "xt": 4022,
    "Md": 4023,
    "s>": 4024,
    "cY": 4025,
    "7p": 4026,
    "20p": 4027,
    "M,d": 4028,
    "X2": 4029,
    "X1": 4030,
    "Y1": 4031,
    "G,x": 4032,
    "e3": 4033,
    "p,n": 4034,
    ",w\\right": 4035,
    "Hom": 4036,
    "GV": 4037,
    "y\\Delta": 4038,
    "i!": 4039,
    "TR": 4040,
    "A\\sigma": 4041,
    "[L]": 4042,
    "q\\in": 4043,
    "v\\sin\\theta": 4044,
    "V[G": 4045,
    "V]": 4046,
    "p[A,B]": 4047,
    "v,h": 4048,
    "a\\phi": 4049,
    "GP": 4050,
    "[80": 4051,
    "85]": 4052,
    "ue": 4053,
    "a,x": 4054,
    "4,20,0.05": 4055,
    "k[[t": 4056,
    "NN": 4057,
    "m]": 4058,
    "[TN]": 4059,
    "0.01x": 4060,
    "bY": 4061,
    ",...,b": 4062,
    "e,": 4063,
    "x,r": 4064,
    "Hot": 4065,
    "r,k": 4066,
    "ikr": 4067,
    "Cos": 4068,
    "16a": 4069,
    "4A": 4070,
    "2av": 4071,
    "vh": 4072,
    "\\left[f": 4073,
    "d,r": 4074,
    "bk": 4075,
    "PFER": 4076,
    "r\\sin\\phi": 4077,
    "384": 4078,
    "RRB": 4079,
    "3P": 4080,
    "[1,4]": 4081,
    "BSC": 4082,
    "\\log|z": 4083,
    "E[R": 4084,
    "Ei": 4085,
    "[[x,y],z]": 4086,
    "0,0,0,1": 4087,
    "].": 4088,
    "R[X]": 4089,
    "bA": 4090,
    "E[u": 4091,
    "6h": 4092,
    "177\\pm": 4093,
    "j0": 4094,
    "n,m,p": 4095,
    "i,2": 4096,
    "\\left|z": 4097,
    ",...z": 4098,
    "xx,y": 4099,
    "[C]": 4100,
    "C\\": 4101,
    "clk": 4102,
    "R[X": 4103,
    "sh": 4104,
    "X,f": 4105,
    "Vk": 4106,
    "1,1,1,1": 4107,
    "G\\left": 4108,
    "B,A": 4109,
    "t,r,\\theta,\\phi": 4110,
    "rdr": 4111,
    "EC": 4112,
    "qt": 4113,
    "|H|": 4114,
    ",...,Y": 4115,
    "3\\phi": 4116,
    "5c": 4117,
    "12q": 4118,
    "wq": 4119,
    "4.36": 4120,
    "iY]": 4121,
    "0.18": 4122,
    "FT": 4123,
    "l0": 4124,
    "m0": 4125,
    "LSB": 4126,
    "r,\\theta,z": 4127,
    "I\\left": 4128,
    "\\left|A\\right|": 4129,
    "mV": 4130,
    "pd\\sigma": 4131,
    "pd\\pi": 4132,
    "5p": 4133,
    "tan\\phi": 4134,
    "7000": 4135,
    "r\\sigma": 4136,
    "ng": 4137,
    "r,c": 4138,
    "|cz": 4139,
    "d|": 4140,
    "Min": 4141,
    "r\\Delta": 4142,
    "s,\\theta": 4143,
    "s\\theta": 4144,
    "0,1,2,3,": 4145,
    "Lh": 4146,
    "|BC|": 4147,
    "|AC|": 4148,
    "iax": 4149,
    "r2": 4150,
    "d,f": 4151,
    "apk": 4152,
    "t\\left": 4153,
    "NA": 4154,
    "n\\sin": 4155,
    "Ric": 4156,
    "h[n": 4157,
    "ABA": 4158,
    "m,r": 4159,
    "p,q,a": 4160,
    "15t": 4161,
    "0.100": 4162,
    "Fx": 4163,
    "||v||": 4164,
    "X\\pm\\left": 4165,
    "\\theta|": 4166,
    "3yx": 4167,
    "1L": 4168,
    "modn": 4169,
    "h\\neq": 4170,
    "t,j": 4171,
    "qvB": 4172,
    ",...,H": 4173,
    "\\left|A": 4174,
    "TCPI": 4175,
    "BAC": 4176,
    "\\left[0,1\\right]": 4177,
    "sf": 4178,
    "C3": 4179,
    "\\infty,": 4180,
    "[P,L]": 4181,
    "x,a": 4182,
    "gk": 4183,
    "ikz": 4184,
    "\\neq\\sigma": 4185,
    "4\\pi\\mu": 4186,
    "B[B]": 4187,
    "4P": 4188,
    "M1": 4189,
    "M2": 4190,
    "l,m,n": 4191,
    "11.569": 4192,
    "\\left||v\\right||": 4193,
    "1\\mu": 4194,
    "\\theta\\theta": 4195,
    "si": 4196,
    "EXB": 4197,
    "|S||T|": 4198,
    "R[\\Delta": 4199,
    "Mz": 4200,
    "FC": 4201,
    "]g": 4202,
    "mX": 4203,
    "per": 4204,
    "w[n]": 4205,
    "e[n]": 4206,
    "a2": 4207,
    "Xdt": 4208,
    "IC": 4209,
    "\\log|x|": 4210,
    "1,1,1": 4211,
    "[1,2]": 4212,
    "nl": 4213,
    "2m\\left|E\\right|": 4214,
    "A[x": 4215,
    "Si": 4216,
    "prf": 4217,
    ",...,r": 4218,
    "k\\pm": 4219,
    "S[A[i]": 4220,
    "axis": 4221,
    "6A": 4222,
    "5k": 4223,
    "hi": 4224,
    "MCF": 4225,
    "a\\log": 4226,
    "i,Y": 4227,
    "M[f": 4228,
    "M[f]": 4229,
    "uz": 4230,
    "ps": 4231,
    "pl": 4232,
    "||auth": 4233,
    "Ann": 4234,
    "nj": 4235,
    "rG": 4236,
    "512": 4237,
    "5,2": 4238,
    "EMV": 4239,
    "BMV": 4240,
    "Hp": 4241,
    "eg": 4242,
    "4I": 4243,
    "fl": 4244,
    "|N|": 4245,
    "2xdx": 4246,
    "2ydy": 4247,
    "t,z": 4248,
    "Vs": 4249,
    "H2": 4250,
    "y2": 4251,
    "y1": 4252,
    "A]\\": 4253,
    "0.04m": 4254,
    ">4": 4255,
    "Bu": 4256,
    ",\\left": 4257,
    "0,q": 4258,
    "3,q": 4259,
    "4,q": 4260,
    "conf": 4261,
    "m,0": 4262,
    "n,k,l": 4263,
    "B3": 4264,
    "obsv": 4265,
    "emit": 4266,
    "t\\cos": 4267,
    "2.7x": 4268,
    "gi": 4269,
    "cN": 4270,
    "hk": 4271,
    "HH": 4272,
    "t,x,y": 4273,
    "0.667": 4274,
    "0.46": 4275,
    "x,\\lambda,t": 4276,
    "C,": 4277,
    "Mi": 4278,
    "2]V": 4279,
    "a,b,n": 4280,
    "Pbx": 4281,
    "FX": 4282,
    "B,B": 4283,
    "[h,f]": 4284,
    "Mgr": 4285,
    "PB": 4286,
    ",...,t": 4287,
    "a[": 4288,
    "5,040": 4289,
    "k,x": 4290,
    "R[S": 4291,
    "Pl": 4292,
    "2gd": 4293,
    "d[C]": 4294,
    "uq": 4295,
    "j\\pm": 4296,
    "f,f": 4297,
    "RAB": 4298,
    "N,s": 4299,
    "2,2,0": 4300,
    "v\\cos": 4301,
    "AR": 4302,
    "cos\\phi": 4303,
    "bip": 4304,
    "B\\": 4305,
    "0!": 4306,
    "5I": 4307,
    "1,\\infty": 4308,
    "e,t": 4309,
    "2cd": 4310,
    "u[": 4311,
    "\\pi,2\\pi": 4312,
    "Cc": 4313,
    "q,t": 4314,
    "10v": 4315,
    ",0,": 4316,
    "x,q": 4317,
    "x,c": 4318,
    "89]": 4319,
    "|d|": 4320,
    "i>k": 4321,
    "dxdy": 4322,
    "SF": 4323,
    "qi": 4324,
    "\\sigma\\sigma": 4325,
    "6.46": 4326,
    "kz": 4327,
    "Ass": 4328,
    "fA": 4329,
    "P1,P2": 4330,
    "kers": 4331,
    "5s": 4332,
    "\\mu,\\sigma,": 4333,
    "\\pi\\sigma": 4334,
    "a,b\\right": 4335,
    "CMI": 4336,
    "a,b,x": 4337,
    "high": 4338,
    "ne\\mu": 4339,
    "1,1]": 4340,
    "\\right|>": 4341,
    "|N": 4342,
    "v\\cos\\theta": 4343,
    "2at": 4344,
    "GG": 4345,
    "tor": 4346,
    "\\left|C\\right|": 4347,
    "[[y,z],x]": 4348,
    "[[z,x],y]": 4349,
    ">n": 4350,
    "0,1,0": 4351,
    "Cut": 4352,
    "...a": 4353,
    "S,A\\": 4354,
    ",S,\\": 4355,
    "v,N": 4356,
    "j]": 4357,
    "S[i]": 4358,
    "S[j]": 4359,
    "e,f": 4360,
    "ea,0": 4361,
    "low": 4362,
    "PRF": 4363,
    "pc\\right": 4364,
    "nA": 4365,
    "jn": 4366,
    "ac\\cos": 4367,
    "bc\\cos": 4368,
    "h,x": 4369,
    "MRS": 4370,
    "n,\\theta": 4371,
    "d,ave": 4372,
    "Lclm": 4373,
    "rpm": 4374,
    "a1,a2,a3,...": 4375,
    "f,g,h": 4376,
    "1I": 4377,
    "],[A": 4378,
    "g\\sin\\theta": 4379,
    "k\\left": 4380,
    "slog": 4381,
    "3FL": 4382,
    "2bd": 4383,
    "P,C": 4384,
    "G,T": 4385,
    "9m": 4386,
    "T,p": 4387,
    "3,20,0.05": 4388,
    "FL\\sin\\theta": 4389,
    "VP": 4390,
    "n,a": 4391,
    "9N": 4392,
    "2bP": 4393,
    ".\\mu": 4394,
    "c,c": 4395,
    "j\\theta": 4396,
    "Ir": 4397,
    "[a,a]": 4398,
    "0,h": 4399,
    "0.51": 4400,
    "1728": 4401,
    "uS": 4402,
    "C[0,1]": 4403,
    "0.2M": 4404,
    ".T": 4405,
    ".y": 4406,
    "81x": 4407,
    "[u][v]": 4408,
    "li": 4409,
    "ld": 4410,
    "4,4": 4411,
    "25n": 4412,
    "13n": 4413,
    "CN": 4414,
    "30.48": 4415,
    "C2": 4416,
    "N,q,s": 4417,
    "bB": 4418,
    "0.0362": 4419,
    "a,0,0": 4420,
    "PPV": 4421,
    "]e": 4422,
    "v,i": 4423,
    "aff": 4424,
    "[P": 4425,
    "2n!": 4426,
    "4000": 4427,
    "def": 4428,
    ".v": 4429,
    "0,0,1": 4430,
    "RG": 4431,
    ">d": 4432,
    "Free": 4433,
    "vr": 4434,
    "diag": 4435,
    "e\\cos\\theta": 4436,
    ">S": 4437,
    ",dx": 4438,
    "rh": 4439,
    "Xdx": 4440,
    "6,2": 4441,
    "a.P": 4442,
    "[0]": 4443,
    "m\\lambda": 4444,
    "iI": 4445,
    "Rr": 4446,
    "Ve": 4447,
    "4MG": 4448,
    "R[M]": 4449,
    "B\\sin": 4450,
    "Bm": 4451,
    "S,A,B,C\\": 4452,
    ",S,P": 4453,
    "100x": 4454,
    "hm": 4455,
    "\\left|Y\\right|": 4456,
    "n\\mu": 4457,
    "3RT": 4458,
    "2Hl": 4459,
    "210x": 4460,
    "e\\neq": 4461,
    "er": 4462,
    "\\pi,A": 4463,
    "bfo": 4464,
    "sgn": 4465,
    "V[x": 4466,
    "]x": 4467,
    "rv": 4468,
    "SN": 4469,
    "k[y": 4470,
    "k,n,": 4471,
    "1,...,n\\": 4472,
    "En": 4473,
    "fe": 4474,
    "L[u]": 4475,
    "|k": 4476,
    ",\\pm\\sigma": 4477,
    "z,u": 4478,
    "4fy": 4479,
    "Lie": 4480,
    "0.76": 4481,
    "pub": 4482,
    "|\\log": 4483,
    "w,w": 4484,
    "0,1,2": 4485,
    "G\\right": 4486,
    "d,k": 4487,
    "2ac\\cos": 4488,
    "m,1,m": 4489,
    "V,m": 4490,
    "l,": 4491,
    "u\\Delta": 4492,
    "F0": 4493,
    "spec": 4494,
    "BIl": 4495,
    "P.MPL": 4496,
    "\\in[0,1]": 4497,
    "kz\\right": 4498,
    "te": 4499,
    "456": 4500,
    "6N": 4501,
    "[4x": 4502,
    "1,s": 4503,
    "2\\pi\\Delta": 4504,
    "Az": 4505,
    "Ba": 4506,
    "env": 4507,
    ">T": 4508,
    "ah": 4509,
    "y,pn": 4510,
    "R,T": 4511,
    "[x,s]": 4512,
    "LCM": 4513,
    "400N": 4514,
    "L\\in": 4515,
    "1ex": 4516,
    "1.00": 4517,
    "6.28": 4518,
    "23.306": 4519,
    "||L": 4520,
    "sz": 4521,
    "14mod12": 4522,
    "m[0]": 4523,
    "p\\right": 4524,
    "x,w\\right": 4525,
    "APB": 4526,
    "40.0": 4527,
    "|R": 4528,
    "fRep": 4529,
    ">P": 4530,
    "y.f": 4531,
    "Rg": 4532,
    "[i]": 4533,
    "3E": 4534,
    "n\\pm": 4535,
    "PCER": 4536,
    "curl": 4537,
    "|b": 4538,
    "t,u": 4539,
    "s,n": 4540,
    "frac": 4541,
    "y\\sin": 4542,
    ",...,v": 4543,
    "FM": 4544,
    "ind": 4545,
    ">F": 4546,
    "\\theta,t": 4547,
    "3F": 4548,
    "6m": 4549,
    "sy": 4550,
    "AS": 4551,
    "|\\": 4552,
    "g\\": 4553,
    "f,h\\": 4554,
    "S\\": 4555,
    "zj": 4556,
    "VV": 4557,
    "Vi": 4558,
    "[A,C]": 4559,
    "[t,t": 4560,
    "l,k": 4561,
    "bend": 4562,
    "avg,n": 4563,
    "[n,k": 4564,
    "bol": 4565,
    "ads": 4566,
    "1,0,\\pm": 4567,
    "||T||": 4568,
    "dyds": 4569,
    "rdx": 4570,
    "0,50": 4571,
    "o,1": 4572,
    "1.5\\pm": 4573,
    "\\left|G\\right|": 4574,
    "13.6": 4575,
    "\\cos\\theta\\pm": 4576,
    "2LT": 4577,
    "v,q": 4578,
    "600N": 4579,
    "\\phi,x": 4580,
    "1,000": 4581,
    "[H,H]": 4582,
    "Eq.4": 4583,
    "ea": 4584,
    "g]": 4585,
    "Yf": 4586,
    "E[F": 4587,
    "[c,d]": 4588,
    "d,b": 4589,
    "dist": 4590,
    "NT": 4591,
    ",...,h": 4592,
    "1,0,": 4593,
    "Nb": 4594,
    "q\\": 4595,
    "2,1\\right\\": 4596,
    "\\lambda,\\phi": 4597,
    "F,G\\": 4598,
    ">N": 4599,
    "i\\in[1,2,3,": 4600,
    "m\\mu": 4601,
    "3uv": 4602,
    "2n,": 4603,
    "2m\\left": 4604,
    "1.36": 4605,
    "109.2": 4606,
    "100.0": 4607,
    "38.9": 4608,
    "m\\phi": 4609,
    "l,r": 4610,
    "a>1": 4611,
    "FGT": 4612,
    "r\\cos\\phi": 4613,
    "dir": 4614,
    "k,v": 4615,
    "r,g,b": 4616,
    "25x": 4617,
    "dG\\left": 4618,
    "x>": 4619,
    "0.299R": 4620,
    "0.587G": 4621,
    "0.114B": 4622,
    "va": 4623,
    "V,E": 4624,
    "0,i": 4625,
    "Ex": 4626,
    "qm": 4627,
    "r\\": 4628,
    "dim": 4629,
    "0.5878": 4630,
    "spin": 4631,
    "0.995": 4632,
    ",m\\right": 4633,
    ",i\\right": 4634,
    "rem": 4635,
    "mg\\left": 4636,
    "err": 4637,
    "m\\pi": 4638,
    "t\\in\\": 4639,
    ",T\\": 4640,
    "X,a": 4641,
    "\\mu|": 4642,
    "[ax": 4643,
    "hxy": 4644,
    "2,2,": 4645,
    "X,E": 4646,
    "wh": 4647,
    "enc": 4648,
    "2EI": 4649,
    "j1.40": 4650,
    "Ran": 4651,
    "td": 4652,
    "Rl": 4653,
    "atan": 4654,
    "MP": 4655,
    "\\theta\\in": 4656,
    "409": 4657,
    "ln2": 4658,
    "m1,m2,m3,k": 4659,
    "f,b": 4660,
    "I,I": 4661,
    "qL": 4662,
    "[i,j]": 4663,
    "mP": 4664,
    "12.0": 4665,
    "2.2": 4666,
    "61b": 4667,
    "C\\left": 4668,
    "PFB": 4669,
    "xRx": 4670,
    "MPL": 4671,
    "k[": 4672,
    "0.0867": 4673,
    "kT\\log\\left": 4674,
    "Eq.2": 4675,
    "|u|": 4676,
    "yf": 4677,
    "a\\mu": 4678,
    "s,u": 4679,
    "drag": 4680,
    "S,S": 4681,
    "u,u": 4682,
    "z\\neq": 4683,
    "|\\right": 4684,
    "time": 4685,
    "|\\mathrm": 4686,
    "231": 4687,
    "744": 4688,
    "619": 4689,
    "HETP": 4690,
    "N\\sin\\theta": 4691,
    "k\\Delta": 4692,
    "V,E,A": 4693,
    "add": 4694,
    "imp": 4695,
    "x,y,u,v": 4696,
    "t,\\sigma": 4697,
    "P,V,T": 4698,
    "2\\tan": 4699,
    "a\\tan": 4700,
    "0,n": 4701,
    "n,l,m": 4702,
    "2\\cos\\left": 4703,
    "k[t": 4704,
    "x>x": 4705,
    "bulk": 4706,
    "BAF": 4707,
    "0.35": 4708,
    "0.152\\lambda": 4709,
    "2\\log\\log": 4710,
    "j\\left": 4711,
    "2a\\sin": 4712,
    "od": 4713,
    "oc": 4714,
    "pri": 4715,
    "n>d": 4716,
    "k,l": 4717,
    "mea": 4718,
    ",r,s": 4719,
    "555": 4720,
    "0.008": 4721,
    "0.009": 4722,
    "3\\log": 4723,
    "1...N": 4724,
    "ra": 4725,
    "y\\cos": 4726,
    ",H\\": 4727,
    "c||u||": 4728,
    "0.09": 4729,
    "GE": 4730,
    "8G": 4731,
    "0,0,a": 4732,
    "Vect": 4733,
    "S,t": 4734,
    "4AB": 4735,
    "|||x||": 4736,
    "y,1": 4737,
    "ydy": 4738,
    "lnV": 4739,
    "pp\\sigma": 4740,
    "pp\\pi": 4741,
    "q,r\\": 4742,
    "r\\cos\\Delta": 4743,
    "1,d": 4744,
    "ig\\": 4745,
    "c[n]": 4746,
    "Stk": 4747,
    "CT": 4748,
    "CGM": 4749,
    "T,V": 4750,
    "\\log\\": 4751,
    "bV": 4752,
    "38x": 4753,
    "full": 4754,
    "open": 4755,
    "s,a,s": 4756,
    "vz": 4757,
    "299": 4758,
    "A[x]": 4759,
    "2ex": 4760,
    "pav": 4761,
    "\\sigma[L]": 4762,
    "Xdz": 4763,
    "1,0,1": 4764,
    "wy": 4765,
    "T\\mathrm": 4766,
    "w\\in": 4767,
    "12\\div": 4768,
    "S1": 4769,
    "|>": 4770,
    "[H,": 4771,
    "AV": 4772,
    "5\\left[\\left": 4773,
    "1\\right]": 4774,
    "\\left|F": 4775,
    "p]": 4776,
    "q]": 4777,
    "PSL": 4778,
    "x,G": 4779,
    "\\left[R": 4780,
    "24n": 4781,
    "Cov": 4782,
    "xo": 4783,
    "1.051": 4784,
    "2500": 4785,
    "CAS": 4786,
    "ENC": 4787,
    "hash": 4788,
    "\\sigma[1]": 4789,
    ">B": 4790,
    "Bxy": 4791,
    "[AB]": 4792,
    "9y": 4793,
    "45y": 4794,
    "Mds": 4795,
    "[c]": 4796,
    "23,2": 4797,
    "0\\neq": 4798,
    ",x]": 4799,
    "m\\": 4800,
    "u,v,w": 4801,
    "esc": 4802,
    "0.42": 4803,
    "s\\pm": 4804,
    "E[x": 4805,
    "RA": 4806,
    "\\left[e": 4807,
    "Mm": 4808,
    "it\\mu": 4809,
    "1.22": 4810,
    "1...m": 4811,
    "xI": 4812,
    "nit": 4813,
    "njt": 4814,
    "B>1": 4815,
    "0.111": 4816,
    ">V": 4817,
    "M,w": 4818,
    "lmV": 4819,
    "n,X": 4820,
    "1,1,": 4821,
    "p\\mathrm": 4822,
    "j2\\pi": 4823,
    "vT": 4824,
    "i,x": 4825,
    "dx\\right]dx": 4826,
    "|f||g|": 4827,
    "k[x,y,z]": 4828,
    "\\neq\\pm": 4829,
    "grad": 4830,
    "9k": 4831,
    "z\\cos": 4832,
    "vH": 4833,
    "||h": 4834,
    "0es": 4835,
    "app": 4836,
    "x,\\Delta": 4837,
    "||\\theta||": 4838,
    "v\\": 4839,
    "ncp": 4840,
    "p\\mu": 4841,
    "Hb": 4842,
    "x,y,z\\": 4843,
    "0,1,2,...\\": 4844,
    "qvXB": 4845,
    "r>": 4846,
    "7225": 4847,
    "BH": 4848,
    "MG": 4849,
    "cg": 4850,
    "IP": 4851,
    "\\lambda\\neq": 4852,
    "|F|": 4853,
    "perf": 4854,
    "a,z\\right": 4855,
    "c,x\\right": 4856,
    "pec": 4857,
    "term": 4858,
    "i,3": 4859,
    "i,4": 4860,
    ",xp": 4861,
    "2,12": 4862,
    "t\\sigma": 4863,
    "0m": 4864,
    "P,P": 4865,
    "z\\Delta": 4866,
    "mg\\cos": 4867,
    "[a]p": 4868,
    "nat": 4869,
    "6,...": 4870,
    ",p\\": 4871,
    "p,q\\": 4872,
    "tl": 4873,
    "j0.54": 4874,
    "m,b": 4875,
    "hkl": 4876,
    "fg,h\\": 4877,
    "g,h\\": 4878,
    "3\\lambda": 4879,
    "b,k": 4880,
    "sinx": 4881,
    "\\left|p\\right|": 4882,
    "\\left|E": 4883,
    "hms": 4884,
    "1m": 4885,
    "Cr\\": 4886,
    "PS": 4887,
    "23n": 4888,
    "7,4": 4889,
    "r[k]": 4890,
    "val": 4891,
    "1.602": 4892,
    "rA": 4893,
    "rB": 4894,
    "y\\cos\\theta": 4895,
    "0.177\\lambda": 4896,
    "Vd": 4897,
    "T1": 4898,
    "T2": 4899,
    "T3": 4900,
    "q\\theta": 4901,
    "2Ar": 4902,
    "n>1": 4903,
    "3.5S": 4904,
    "p,s": 4905,
    "niq": 4906,
    "i,a": 4907,
    "2a\\pm": 4908,
    "n,3": 4909,
    "m.P": 4910,
    "1,...,n": 4911,
    "A,A": 4912,
    "remP": 4913,
    "n,a,b": 4914,
    "0k": 4915,
    "iT": 4916,
    "gM": 4917,
    "lc": 4918,
    "e1": 4919,
    "p1": 4920,
    "2i\\theta": 4921,
    "s|": 4922,
    "0.9511": 4923,
    "\\mu\\right": 4924,
    "||Ax": 4925,
    "B[i]": 4926,
    "heel": 4927,
    "0.866": 4928,
    "Attr": 4929,
    "TH": 4930,
    "qq": 4931,
    "1.715": 4932,
    "Y,i": 4933,
    "hu": 4934,
    "lw": 4935,
    "nhf": 4936,
    "2r\\cos": 4937,
    "1.023": 4938,
    "Bz": 4939,
    "tty": 4940,
    "yyy": 4941,
    "Np": 4942,
    "0.85y": 4943,
    "GH": 4944,
    "[\\lambda,\\mu]": 4945,
    "mA": 4946,
    "str": 4947,
    "A,C\\right": 4948,
    "ss\\sigma": 4949,
    "64x": 4950,
    "B||": 4951,
    "x,g": 4952,
    "cot": 4953,
    "1>": 4954,
    ">s": 4955,
    "B\\in": 4956,
    "625": 4957,
    "IG": 4958,
    "7,2": 4959,
    "ETC": 4960,
    "r0": 4961,
    "f[x": 4962,
    "\\infty,1": 4963,
    "T,T": 4964,
    "10ft": 4965,
    "Nn": 4966,
    "iH": 4967,
    "k>n": 4968,
    "2re": 4969,
    "A,d": 4970,
    "s,2": 4971,
    "slip": 4972,
    "axy": 4973,
    "14.696": 4974,
    "psia": 4975,
    "t,n": 4976,
    "V,A": 4977,
    "tid": 4978,
    "vt\\sin\\theta": 4979,
    "A>0": 4980,
    "14m": 4981,
    ">E": 4982,
    "||u||": 4983,
    "rz": 4984,
    "cold": 4985,
    "r1": 4986,
    ",\\left\\": 4987,
    "b,1\\right": 4988,
    "arv": 4989,
    "iL": 4990,
    "Ace": 4991,
    "gas": 4992,
    "[0,N]": 4993,
    "80L": 4994,
    "3,6,1": 4995,
    "4,1,5": 4996,
    "\\left|p": 4997,
    "III": 4998,
    "k,n,r,": 4999,
    "a,b,t": 5000,
    "t|": 5001,
    "f,z": 5002,
    "t>s": 5003,
    "2|a": 5004,
    ",...,s": 5005,
    "m>1": 5006,
    "PM": 5007,
    "|s|": 5008,
    "6,4": 5009,
    "a,P": 5010,
    "xr": 5011,
    "i,kkmm": 5012,
    "tz": 5013,
    "veh": 5014,
    "H,G": 5015,
    "Ah": 5016,
    "1444": 5017,
    "EAS": 5018,
    "y,m": 5019,
    "f\\Delta": 5020,
    "b,d,u": 5021,
    "SH": 5022,
    "ana": 5023,
    "\\left|a\\right|": 5024,
    "rX": 5025,
    "1],": 5026,
    "ic": 5027,
    "loc": 5028,
    "RIT": 5029,
    "\\lambda\\phi": 5030,
    "i,f": 5031,
    "\\pi,\\pi": 5032,
    "3x3": 5033,
    "2.1\\pm": 5034,
    "4xy": 5035,
    "exh": 5036,
    "MI": 5037,
    "vol": 5038,
    "q\\left": 5039,
    "lj": 5040,
    "P,m": 5041,
    "4n|": 5042,
    "x,y\\pm": 5043,
    "name": 5044,
    "Alg": 5045,
    "Ni": 5046,
    ",...,F": 5047,
    "itb": 5048,
    "ita": 5049,
    "V2": 5050,
    "2u,r": 5051,
    "2,000,000": 5052,
    "\\mu\\": 5053,
    "\\theta\\phi": 5054,
    "Bk": 5055,
    "d0": 5056,
    "RBC": 5057,
    "0.693": 5058,
    "\\left|y[n]\\right|": 5059,
    "Br": 5060,
    "Bv": 5061,
    "|a|,|b|": 5062,
    "100n": 5063,
    ",M,Re,P": 5064,
    "[h,e]": 5065,
    "gfg": 5066,
    "AG": 5067,
    "YY": 5068,
    "Hu": 5069,
    "2,20,0.05": 5070,
    "ASA": 5071,
    "b,t": 5072,
    "\\lambda,z": 5073,
    "0,R": 5074,
    "diag\\left": 5075,
    "BX": 5076,
    "Ta": 5077,
    "year": 5078,
    "H,X": 5079,
    "ab\\sin": 5080,
    ",...,l": 5081,
    "d[P]": 5082,
    "[A][M]": 5083,
    "T[i]": 5084,
    "...x": 5085,
    "y,f": 5086,
    "273": 5087,
    "V,": 5088,
    "\\log||C": 5089,
    "1.22\\lambda": 5090,
    "27R": 5091,
    "64P": 5092,
    "fk": 5093,
    "322": 5094,
    "1,r": 5095,
    ",...b": 5096,
    "[k]b": 5097,
    "n,n,n": 5098,
    "mass": 5099,
    ",...\\": 5100,
    "E[f": 5101,
    "\\mu,": 5102,
    ".m": 5103,
    "2A|": 5104,
    "MP,C": 5105,
    "Mdx": 5106,
    "A,\\sigma": 5107,
    "bu": 5108,
    "bank": 5109,
    "t[a": 5110,
    "wl": 5111,
    "x.xx": 5112,
    ",c,d,h": 5113,
    "CCI": 5114,
    "aR": 5115,
    "48EI": 5116,
    "5Lx": 5117,
    "5\\right": 5118,
    "ed": 5119,
    "free": 5120,
    "EM": 5121,
    "n\\log\\log": 5122,
    "[\\pi]": 5123,
    "e[n": 5124,
    "\\left|R\\right|": 5125,
    "x,v": 5126,
    "uc": 5127,
    "T,c": 5128,
    "TF": 5129,
    "E,S": 5130,
    "0.54": 5131,
    "S2": 5132,
    "imi": 5133,
    "E\\left[": 5134,
    "gen": 5135,
    "a\\sin\\theta": 5136,
    "eB": 5137,
    "u,v\\": 5138,
    "1110": 5139,
    "[F]": 5140,
    "333": 5141,
    "A,X": 5142,
    "B,X": 5143,
    "3.75": 5144,
    ">g": 5145,
    "g\\neq": 5146,
    "u,x,y": 5147,
    "8v": 5148,
    "mjwv": 5149,
    "T\\": 5150,
    "\\pm\\cos": 5151,
    "x,y,z\\right": 5152,
    "250,000": 5153,
    "4320": 5154,
    "4739": 5155,
    "13.6eV": 5156,
    "40.219": 5157,
    "0,1,0,0": 5158,
    "far": 5159,
    "|ax": 5160,
    "80x": 5161,
    "xY": 5162,
    "100s": 5163,
    "a,i": 5164,
    "IVIM": 5165,
    "2T\\left": 5166,
    "w|": 5167,
    "[r": 5168,
    "fxy": 5169,
    "CINT": 5170,
    ",...,V": 5171,
    "[E]": 5172,
    "2.405": 5173,
    "|\\lambda": 5174,
    "im\\pi": 5175,
    "6.937\\right": 5176,
    "Edim": 5177,
    "Y]": 5178,
    "FRC": 5179,
    "Na": 5180,
    "x\\in[x": 5181,
    "1.69": 5182,
    "[y,x]": 5183,
    "zs": 5184,
    "6,3": 5185,
    "2nb": 5186,
    "Math": 5187,
    "...g": 5188,
    "[r]": 5189,
    "aP": 5190,
    "bP": 5191,
    "A,t": 5192,
    "x\\right\\": 5193,
    "sv": 5194,
    "280r": 5195,
    "I1": 5196,
    "amb": 5197,
    ",y\\": 5198,
    "E[x]": 5199,
    "100,000": 5200,
    "N,V,T": 5201,
    "\\left[n\\right]": 5202,
    "\\infty,c": 5203,
    "E.G": 5204,
    "NR": 5205,
    "ST": 5206,
    "I,M": 5207,
    "XC": 5208,
    "E[M]": 5209,
    "p|": 5210,
    "4,5": 5211,
    "seqs": 5212,
    "2,3,4": 5213,
    "area": 5214,
    "js": 5215,
    "...d": 5216,
    ",id": 5217,
    "1000x": 5218,
    "jd": 5219,
    "m1,m2,k": 5220,
    "cumf": 5221,
    "R[R]": 5222,
    "G[G]": 5223,
    "Y[x,y]": 5224,
    "r,h": 5225,
    "GT": 5226,
    "0,\\pi": 5227,
    "2N\\log": 5228,
    "k,\\sigma": 5229,
    "2,2,2": 5230,
    "[2,3]": 5231,
    "u\\pm": 5232,
    "0,d": 5233,
    "[u,v]": 5234,
    "m.\\lambda": 5235,
    "n.\\lambda": 5236,
    "x.": 5237,
    "x>0": 5238,
    "fc": 5239,
    "1,N": 5240,
    "e,n": 5241,
    "CVP": 5242,
    "c\\sigma": 5243,
    "0.6s": 5244,
    "\\right|>1": 5245,
    "\\left|L": 5246,
    "wind": 5247,
    "z0": 5248,
    "629": 5249,
    "0.27": 5250,
    "0.0391": 5251,
    "Fm": 5252,
    "Poss": 5253,
    "vdt": 5254,
    "cdf": 5255,
    "key": 5256,
    "h,g": 5257,
    "\\Delta\\mu": 5258,
    "n\\sin\\theta": 5259,
    "tan\\theta": 5260,
    "Lii": 5261,
    ",...,A": 5262,
    "g,2": 5263,
    "\\sin\\theta\\left": 5264,
    "|jX": 5265,
    "jam": 5266,
    "LB": 5267,
    "S[b": 5268,
    "4GM": 5269,
    "nM": 5270,
    "n,h": 5271,
    "2.3": 5272,
    "4\\pi|x|": 5273,
    "Rep": 5274,
    "0,2a": 5275,
    "RH": 5276,
    "inN": 5277,
    "0,ij": 5278,
    "CRF": 5279,
    "RBI": 5280,
    "[N": 5281,
    "a\\lambda": 5282,
    "2.512": 5283,
    "Hg": 5284,
    "P,q,g": 5285,
    "1,z\\pm": 5286,
    "],L": 5287,
    "[w]": 5288,
    "q1": 5289,
    "fb": 5290,
    "\\lambda\\in": 5291,
    "CX": 5292,
    "hX": 5293,
    "E[e": 5294,
    "T.\\Delta": 5295,
    "0.9Y": 5296,
    "b,\\lambda": 5297,
    "273.15": 5298,
    "B\\log": 5299,
    "SINR": 5300,
    "Hm": 5301,
    "FF": 5302,
    "3bx": 5303,
    "3cxy": 5304,
    "yM": 5305,
    "AP>0": 5306,
    "TEE": 5307,
    "p.": 5308,
    "Vn": 5309,
    "aSb": 5310,
    ",3": 5311,
    "\\mu\\neq": 5312,
    "Conv": 5313,
    "[g]": 5314,
    "],[": 5315,
    "mpk": 5316,
    "ian": 5317,
    "0.87": 5318,
    "1>n": 5319,
    "obj": 5320,
    "f\\right": 5321,
    "V[x]": 5322,
    "p\\Delta": 5323,
    "6,n": 5324,
    "[q": 5325,
    "X.b": 5326,
    "[89": 5327,
    "Bh": 5328,
    "C\\log": 5329,
    "cR": 5330,
    "\\sin[\\log": 5331,
    "[\\log": 5332,
    "dt,": 5333,
    "i\\sigma": 5334,
    "p\\": 5335,
    "d,q": 5336,
    "pI": 5337,
    "G,4": 5338,
    "S\\mathrm": 5339,
    "2bc\\cos": 5340,
    "x,A": 5341,
    "1.3816": 5342,
    "logn": 5343,
    "w,n": 5344,
    "bH": 5345,
    "1600": 5346,
    "\\cos\\pi": 5347,
    "a\\pi": 5348,
    "2it": 5349,
    "11,5": 5350,
    "58.456": 5351,
    "FE": 5352,
    "2,R": 5353,
    "1320": 5354,
    "\\left[y": 5355,
    "dof": 5356,
    "bnum[r]": 5357,
    "i\\mu": 5358,
    "3nb": 5359,
    "0.21": 5360,
    "3\\sin\\theta": 5361,
    "0y": 5362,
    "\\phi,\\lambda": 5363,
    "FNR": 5364,
    "cho": 5365,
    "609": 5366,
    "7766": 5367,
    "5L": 5368,
    "t\\sin": 5369,
    "Rc": 5370,
    "\\sigma[\\pi": 5371,
    "1929": 5372,
    "||u": 5373,
    "v||": 5374,
    "x,a,b": 5375,
    "aN": 5376,
    "bhl": 5377,
    "S,V,\\": 5378,
    "v,p": 5379,
    "[0,2.404]": 5380,
    "10.2": 5381,
    "m,1": 5382,
    "Pf": 5383,
    "2,1\\right]": 5384,
    "0.34": 5385,
    "wd": 5386,
    "[x,y": 5387,
    "5,20,0.05": 5388,
    "NBR": 5389,
    "B1": 5390,
    "B2": 5391,
    "80\\pi": 5392,
    "M,N": 5393,
    ",p,p": 5394,
    "\\lambda,T": 5395,
    "\\sigma,": 5396,
    "2,5": 5397,
    "C,j": 5398,
    "mgL": 5399,
    "288.15": 5400,
    "c[x": 5401,
    ",t]": 5402,
    "\\lambda,": 5403,
    "1,100": 5404,
    "...i": 5405,
    "M,M": 5406,
    "x\\mathrm": 5407,
    "ACB": 5408,
    "vm": 5409,
    "Cd": 5410,
    "l\\in": 5411,
    "\\right|e": 5412,
    "0,11": 5413,
    "m,n,": 5414,
    "CG": 5415,
    "0,S": 5416,
    "g.e": 5417,
    "0.60": 5418,
    "rep": 5419,
    "0.577": 5420,
    "s,i": 5421,
    "0.72m": 5422,
    "eN": 5423,
    "T]": 5424,
    "sb": 5425,
    "Eb": 5426,
    "g[\\log": 5427,
    "Fan": 5428,
    "|R|": 5429,
    "Nz": 5430,
    "M\\right": 5431,
    "4dA": 5432,
    "detN": 5433,
    "x.m": 5434,
    "r,1": 5435,
    "\\log\\log\\log": 5436,
    "LF": 5437,
    "uA": 5438,
    "7m": 5439,
    "0\\log": 5440,
    "0,s": 5441,
    "\\infty,i": 5442,
    "5.785": 5443,
    "8.333": 5444,
    "11.57": 5445,
    "\\left[\\mathrm": 5446,
    "CAT": 5447,
    "2,3,1": 5448,
    "x,p\\": 5449,
    "qr": 5450,
    "2187": 5451,
    "0.7\\pm": 5452,
    "p,0": 5453,
    "AT": 5454,
    "r,V": 5455,
    "ikE": 5456,
    "\\phi,k": 5457,
    ">C": 5458,
    "\\sin[": 5459,
    "6000": 5460,
    "l\\pi": 5461,
    "1853": 5462,
    "l,q": 5463,
    "zf": 5464,
    "RE": 5465,
    "mat": 5466,
    "M,L": 5467,
    "3.1416": 5468,
    "1.618": 5469,
    "S[p": 5470,
    "Ti": 5471,
    "w\\left": 5472,
    "355": 5473,
    "argz": 5474,
    "Ih": 5475,
    "L\\phi": 5476,
    "t|m": 5477,
    "T|": 5478,
    "[u,v,w]": 5479,
    "[d]": 5480,
    "s2": 5481,
    "V\\sin": 5482,
    "N!": 5483,
    "1.1Re": 5484,
    "r\\theta": 5485,
    "a||b": 5486,
    "364": 5487,
    "4,0": 5488,
    "1337": 5489,
    "h.h": 5490,
    "M,s": 5491,
    "l\\pm": 5492,
    "402": 5493,
    "m,m": 5494,
    "||R": 5495,
    "ttx": 5496,
    "tau": 5497,
    "0.098\\lambda": 5498,
    "m\\log": 5499,
    "y,E": 5500,
    "Cq": 5501,
    "],[x": 5502,
    "B\\right": 5503,
    "runs": 5504,
    "Sr": 5505,
    "p\\in\\": 5506,
    "Rec": 5507,
    "N,e": 5508,
    "70x": 5509,
    "GmM": 5510,
    "Y||": 5511,
    "\\infty,\\infty]": 5512,
    "\\pi,\\lambda": 5513,
    "akt": 5514,
    "gs": 5515,
    "f,v": 5516,
    "2,k": 5517,
    "\\left[0,l": 5518,
    "RV": 5519,
    "u\\phi": 5520,
    "||v": 5521,
    ",...X": 5522,
    "G[": 5523,
    "1H": 5524,
    "377": 5525,
    "p>p": 5526,
    ">\\mathrm": 5527,
    "PF": 5528,
    "aS": 5529,
    "sl,m": 5530,
    "0.0078": 5531,
    "nom": 5532,
    "wb": 5533,
    "8196": 5534,
    "3.73": 5535,
    "alt": 5536,
    "IT": 5537,
    "w,2": 5538,
    "2Rr": 5539,
    "[z,x": 5540,
    ",y]": 5541,
    "[\\phi[f],\\phi[g]]": 5542,
    "244": 5543,
    "t.i": 5544,
    "h[n]s[k": 5545,
    "n[k]": 5546,
    "N>0": 5547,
    "84x": 5548,
    "g,e": 5549,
    "wS": 5550,
    "0]": 5551,
    "1.4000": 5552,
    "N\\cos\\theta": 5553,
    "224": 5554,
    "root": 5555,
    ",xy": 5556,
    "T\\sigma": 5557,
    "0,T": 5558,
    "a,b,c\\right\\": 5559,
    "X[x,y]": 5560,
    "1,2,...,n\\": 5561,
    "IF": 5562,
    "|h": 5563,
    "12a": 5564,
    "i,jj": 5565,
    "j,ij": 5566,
    "||c": 5567,
    "3S": 5568,
    "\\cos\\theta,\\sin\\theta": 5569,
    "rrc": 5570,
    "P\\in": 5571,
    "R[t]": 5572,
    "L[y]": 5573,
    "EG,X": 5574,
    "iEt": 5575,
    "2,N": 5576,
    "TSI": 5577,
    "EMA": 5578,
    "k,data": 5579,
    "\\lambda\\": 5580,
    "x\\exists": 5581,
    "i\\mu\\phi": 5582,
    "12t": 5583,
    "1000n": 5584,
    "s,t,u": 5585,
    ",B,B": 5586,
    "tq": 5587,
    "E\\left[|e": 5588,
    "F,n": 5589,
    "kP": 5590,
    "sw": 5591,
    "|M|e": 5592,
    "2mr": 5593,
    "R[x": 5594,
    "L\\lambda": 5595,
    "E[p]": 5596,
    "7,3": 5597,
    "5,4": 5598,
    "211": 5599,
    "Rn": 5600,
    "3T": 5601,
    "1...n\\": 5602,
    "1613": 5603,
    "0.02x": 5604,
    "2ad": 5605,
    "I\\div": 5606,
    "lex": 5607,
    "g,i": 5608,
    "2,0,0,0,0,0,0": 5609,
    "y\\div": 5610,
    "B>R": 5611,
    "scat": 5612,
    "Bl": 5613,
    "BE2": 5614,
    "1,15": 5615,
    "...A": 5616,
    "ICS": 5617,
    "V,w": 5618,
    "sing": 5619,
    "iB\\": 5620,
    "Ty": 5621,
    "r\\in\\left\\": 5622,
    "0,...,n": 5623,
    "V\\in": 5624,
    "gA": 5625,
    "P,t": 5626,
    "LX": 5627,
    "126.7": 5628,
    "MRTS": 5629,
    "r\\sin\\theta\\sin\\phi": 5630,
    ",\\log": 5631,
    "363": 5632,
    "x\\tan\\theta": 5633,
    "V,E\\right": 5634,
    "1,g": 5635,
    "C,x": 5636,
    "||N||": 5637,
    "3125a": 5638,
    "aM": 5639,
    "loss": 5640,
    "0.426": 5641,
    "hI": 5642,
    "2048": 5643,
    "x.xxx": 5644,
    ".x": 5645,
    "SSNR": 5646,
    ",0]": 5647,
    "3,t": 5648,
    "SAR": 5649,
    "Cij": 5650,
    "x|f": 5651,
    "3,2,1": 5652,
    "a\\in\\": 5653,
    "12log": 5654,
    "xq": 5655,
    "adbc": 5656,
    "[d,e]": 5657,
    "azeq": 5658,
    "fw": 5659,
    "HBP": 5660,
    "[2]P": 5661,
    "1100": 5662,
    "w\\infty": 5663,
    "z\\infty": 5664,
    "Adj": 5665,
    "\\theta\\neq\\pi": 5666,
    "real": 5667,
    "]1": 5668,
    "Leg": 5669,
    "d[M": 5670,
    "sL": 5671,
    "0.71N": 5672,
    ",min": 5673,
    "Sx": 5674,
    "G,": 5675,
    "262": 5676,
    "r,\\phi\\right": 5677,
    "3.14": 5678,
    "2N\\mu": 5679,
    "x[": 5680,
    "Vt": 5681,
    "[0,2": 5682,
    "\\sin\\theta\\cos\\theta": 5683,
    "0.0001": 5684,
    "n,10": 5685,
    "0.5L": 5686,
    "orb": 5687,
    "X,f,": 5688,
    "perp": 5689,
    "2|E|": 5690,
    "Frob": 5691,
    "PME": 5692,
    "...r": 5693,
    "1.62": 5694,
    "r|f": 5695,
    "X,n": 5696,
    "hot": 5697,
    "0.73": 5698,
    "\\left|q": 5699,
    "p\\right|": 5700,
    "Ao": 5701,
    "Bo": 5702,
    "H\\in": 5703,
    "12,34": 5704,
    "6s": 5705,
    "thm": 5706,
    "CY": 5707,
    "2ix": 5708,
    "9,3": 5709,
    "Sf": 5710,
    "ERV": 5711,
    "x,y,k\\sigma\\right": 5712,
    "a,A": 5713,
    "I\\mu": 5714,
    "M,S": 5715,
    "t,S": 5716,
    "CLI": 5717,
    "0.0588": 5718,
    "0.296": 5719,
    "15.8": 5720,
    "CIRC": 5721,
    "MeV": 5722,
    "x>c": 5723,
    "\\pm\\theta": 5724,
    "[A][H]": 5725,
    "t1": 5726,
    "t2": 5727,
    "0,...,q": 5728,
    "c,ap": 5729,
    "ijs": 5730,
    "\\left|X": 5731,
    "\\left|c": 5732,
    "f\\lambda": 5733,
    "...z": 5734,
    "Pz": 5735,
    "l\\neq": 5736,
    "2]|": 5737,
    "[[G": 5738,
    "ae,0": 5739,
    "BGM": 5740,
    "j>0": 5741,
    "0.23": 5742,
    "0.08": 5743,
    "xxxx": 5744,
    "v>v": 5745,
    "\\left[n": 5746,
    "5|": 5747,
    "[1.697,0]": 5748,
    "1.85": 5749,
    "a,b,c,d,e\\": 5750,
    "E3": 5751,
    "Ca": 5752,
    "||C": 5753,
    "x,v,t": 5754,
    "r,mono": 5755,
    "k|x": 5756,
    "rim": 5757,
    "2\\sin\\pi": 5758,
    "5\\mathrm": 5759,
    ",T,N": 5760,
    "yv": 5761,
    "0ij": 5762,
    "mkt": 5763,
    "23.3|X|": 5764,
    "HVL": 5765,
    "0.0519": 5766,
    "200M": 5767,
    "r\\pi": 5768,
    "a,\\theta,b,c": 5769,
    "Sim": 5770,
    "3\\": 5771
  },
  "min_freq": 2
}