{
  "token_to_idx": {
    "<PAD>": 0,
    "<SOS>": 1,
    "<EOS>": 2,
    "<UNK>": 3,
    "I": 4,
    "(": 5,
    "s": 6,
    ")": 7,
    "=": 8,
    "\\frac": 9,
    "{": 10,
    "}": 11,
    "L\\left": 12,
    "^": 13,
    "2": 14,
    "+": 15,
    "R": 16,
    "L": 17,
    "1": 18,
    "LC": 19,
    "\\right": 20,
    "V": 21,
    "k": 22,
    "_": 23,
    "u": 24,
    "0": 25,
    "l": 26,
    "3": 27,
    "4": 28,
    "5": 29,
    "\\ldots": 30,
    "f": 31,
    "t": 32,
    "\\beta": 33,
    "SI": 34,
    "\\pi": 35,
    "/": 36,
    "-": 37,
    "h": 38,
    "x": 39,
    "6": 40,
    "y": 41,
    "z": 42,
    "12x": 43,
    "H\\left\\": 44,
    "\\right\\": 45,
    "\\int": 46,
    "\\theta": 47,
    "d\\theta": 48,
    "F": 49,
    "\\mu": 50,
    "N": 51,
    "E": 52,
    "P": 53,
    "t,T": 54,
    "e": 55,
    "T": 56,
    "t,s": 57,
    "ds": 58,
    "B": 59,
    "i": 60,
    "0,1": 61,
    "\\": 62,
    "A,B\\": 63,
    "c": 64,
    "g": 65,
    "v": 66,
    "a": 67,
    "E\\in": 68,
    "H": 69,
    "j": 70,
    "\\geq": 71,
    "8": 72,
    "\\alpha": 73,
    ",\\mu": 74,
    "d": 75,
    "dt": 76,
    "3a": 77,
    "Y": 78,
    "n": 79,
    "r": 80,
    "nR": 81,
    "2v": 82,
    "bc": 83,
    "S": 84,
    "32": 85,
    "b": 86,
    "A": 87,
    "C": 88,
    ",C": 89,
    ",": 90,
    "70": 91,
    "2e": 92,
    "M": 93,
    "2,k": 94,
    "[s": 95,
    "\\gamma": 96,
    "\\sqrt": 97,
    "\\sigma": 98,
    "yy": 99,
    "yz": 100,
    "xy": 101,
    "3x": 102,
    "fg": 103,
    "q": 104,
    "l\\in": 105,
    "\\Delta": 106,
    "\\times": 107,
    "p": 108,
    "\\sum": 109,
    "2kc": 110,
    ",i": 111,
    "m": 112,
    "1,j": 113,
    "\\prime": 114,
    "33": 115,
    "\\pm": 116,
    "pz": 117,
    "iv": 118,
    "in": 119,
    "10": 120,
    "[": 121,
    "mL": 122,
    "]": 123,
    "2\\pi": 124,
    "Rh": 125,
    "RP": 126,
    "2h": 127,
    "\\leq": 128,
    "\\mathrm": 129,
    "0.6": 130,
    "\\log": 131,
    "50": 132,
    "XY": 133,
    "\\infty": 134,
    "[c": 135,
    "1,i": 136,
    ",c": 137,
    "2,i": 138,
    "x\\pm": 139,
    "mr": 140,
    "nr": 141,
    "out": 142,
    "w": 143,
    "xx": 144,
    "2u": 145,
    "1,2": 146,
    "Sh": 147,
    "Re": 148,
    "Sc": 149,
    "2f": 150,
    "2n": 151,
    "net": 152,
    "ma": 153,
    ">0": 154,
    "qB": 155,
    "37": 156,
    "64": 157,
    "||f||": 158,
    "nz": 159,
    "diag": 160,
    "[m": 161,
    ",m": 162,
    "du": 163,
    "1]": 164,
    "Leg": 165,
    "ij": 166,
    "jk": 167,
    "25": 168,
    "o": 169,
    "3y": 170,
    "ad": 171,
    "if": 172,
    "a,b": 173,
    "X": 174,
    "\\sin": 175,
    "r\\left": 176,
    "\\sin\\theta": 177,
    "mA": 178,
    "[x,y]": 179,
    "[y,x]": 180,
    "dx": 181,
    "Max": 182,
    "a[": 183,
    "A]": 184,
    "ker": 185,
    "\\left": 186,
    "im": 187,
    "[X": 188,
    ",X": 189,
    "\\pi\\left": 190,
    "[3]": 191,
    "2k": 192,
    "4k": 193,
    "qvB": 194,
    "tx": 195,
    "bp": 196,
    "RT": 197,
    "\\phi": 198,
    "12": 199,
    "x\\in": 200,
    "G": 201,
    "u,v": 202,
    "x,p": 203,
    "\\rightarrow": 204,
    "2xy": 205,
    ",\\sigma": 206,
    "1,1,1": 207,
    "k,n": 208,
    "do": 209,
    "a,s": 210,
    "3.2": 211,
    ",q": 212,
    "300": 213,
    "t,k": 214,
    "dq": 215,
    "0.2": 216,
    ",h": 217,
    "km": 218,
    "130": 219,
    "hr": 220,
    "ht": 221,
    "dY": 222,
    "ft": 223,
    "0.30": 224,
    "j0.54": 225,
    "7": 226,
    "quot": 227,
    "2s": 228,
    ",P": 229,
    "4a": 230,
    "ax": 231,
    ",y": 232,
    "[n]": 233,
    "11": 234,
    "2E": 235,
    "MRS": 236,
    "AB": 237,
    "\\neq": 238,
    "BA": 239,
    "[u": 240,
    "|g": 241,
    "|": 242,
    "eff": 243,
    ",v": 244,
    "X,\\Delta": 245,
    "x,y": 246,
    "dy": 247,
    "\\in": 248,
    "pot": 249,
    "\\pm\\left": 250,
    "[m]": 251,
    "cN": 252,
    "180": 253,
    "\\cos": 254,
    "3.1416": 255,
    "625": 256,
    "9": 257,
    "hI": 258,
    "|x": 259,
    "y|": 260,
    "|x|": 261,
    "|y|": 262,
    ",d": 263,
    "sr": 264,
    "a\\sin": 265,
    ",f": 266,
    "it": 267,
    "e\\cos\\theta": 268,
    "zz": 269,
    "xz": 270,
    "111": 271,
    "sat": 272,
    "PS": 273,
    "Cx": 274,
    ",x": 275,
    "rel": 276,
    "mn": 277,
    "123": 278,
    "pe": 279,
    "ix": 280,
    "256": 281,
    "81": 282,
    "GL": 283,
    "1,2,": 284,
    ",n": 285,
    "x\\right": 286,
    ">f": 287,
    "y\\right": 288,
    "MM": 289,
    "nM": 290,
    "\\Delta\\phi": 291,
    "2bd": 292,
    "pc": 293,
    "Vi": 294,
    "1,2n": 295,
    "1,": 296,
    ",2": 297,
    "4n": 298,
    "83": 299,
    "nx": 300,
    "Var": 301,
    "||A||": 302,
    "2,": 303,
    "2x": 304,
    "2y": 305,
    "p,i": 306,
    "X\\in": 307,
    "X\\pm\\left": 308,
    "1\\right": 309,
    "|X": 310,
    "\\theta|": 311,
    "RNN": 312,
    "dz": 313,
    "0,0,": 314,
    "100": 315,
    "agh": 316,
    "beh": 317,
    "cef": 318,
    "dfg": 319,
    "20": 320,
    "dB": 321,
    "\\left[": 322,
    "Fe": 323,
    "\\right]": 324,
    "0.50": 325,
    "[b": 326,
    ",b": 327,
    "At": 328,
    "Ae": 329,
    "n!": 330,
    "0i": 331,
    "4\\pi": 332,
    "b\\pm": 333,
    "4ac": 334,
    "2a": 335,
    "NT": 336,
    "\\in[": 337,
    "left": 338,
    "\\theta\\neq\\pi": 339,
    ",Y": 340,
    ",I": 341,
    "bx": 342,
    ">": 343,
    "af": 344,
    "bg": 345,
    "17": 346,
    "Ax": 347,
    "52": 348,
    "51": 349,
    "f\\left": 350,
    "\\left|I": 351,
    "\\right|": 352,
    "x\\in\\": 353,
    "45": 354,
    "AA": 355,
    "\\log\\left": 356,
    "ke": 357,
    "b\\cos": 358,
    "emit": 359,
    "obsv": 360,
    "pas": 361,
    "n,k": 362,
    "gd": 363,
    "[0,t]": 364,
    ",T": 365,
    "\\Delta\\sigma": 366,
    "n,p": 367,
    "2\\mu": 368,
    "2.6": 369,
    "15": 370,
    ",...": 371,
    "ii": 372,
    ",\\pi": 373,
    "IV": 374,
    "\\left\\": 375,
    "tt": 376,
    "k,i": 377,
    "|i": 378,
    "i>0": 379,
    "dp": 380,
    "ap": 381,
    "3R": 382,
    "max": 383,
    "[4x": 384,
    "iP": 385,
    "16": 386,
    "35": 387,
    "rad": 388,
    "M1": 389,
    "M2": 390,
    "pq": 391,
    "ac": 392,
    "bd": 393,
    "30": 394,
    "2m": 395,
    "dV": 396,
    "dT": 397,
    "nv": 398,
    "|y": 399,
    "i1": 400,
    "i2": 401,
    "ik": 402,
    "n,1": 403,
    "i>k": 404,
    "|k|": 405,
    "BC": 406,
    "g,g": 407,
    ",g": 408,
    "3c": 409,
    "[f]": 410,
    ",s": 411,
    "SG": 412,
    "YX": 413,
    "i,j": 414,
    "u,v,w": 415,
    "xi": 416,
    "yj": 417,
    "zk": 418,
    "ca": 419,
    "comp": 420,
    "2g": 421,
    "Hx": 422,
    "Ai": 423,
    "cl": 424,
    "srgb": 425,
    "2\\theta": 426,
    "7\\sin": 427,
    "mv": 428,
    "kT": 429,
    "\\left|": 430,
    "tot": 431,
    ",p": 432,
    "[A": 433,
    "[A][B]": 434,
    "mag": 435,
    "abc": 436,
    "ct": 437,
    "\\left|c": 438,
    "in\\theta": 439,
    "sd": 440,
    "...": 441,
    "150": 442,
    "165": 443,
    "Ar": 444,
    "2w": 445,
    "ky": 446,
    "4x": 447,
    "FL": 448,
    "2EI": 449,
    "\\sin\\left": 450,
    "\\cos\\left": 451,
    "2r": 452,
    "49": 453,
    ",B": 454,
    "TM": 455,
    "mnl": 456,
    "[x": 457,
    "de": 458,
    "2R": 459,
    "3ay": 460,
    "h,k": 461,
    "|\\log": 462,
    "[a,a]": 463,
    "n\\neq": 464,
    ",w": 465,
    "bt": 466,
    "G\\left": 467,
    "sx": 468,
    "F\\in": 469,
    "13": 470,
    "1,1": 471,
    "bfo": 472,
    "2j": 473,
    "2L": 474,
    ",t": 475,
    ",...,b": 476,
    "HR": 477,
    "1k": 478,
    "d\\mu": 479,
    "log": 480,
    "Cl": 481,
    "ln": 482,
    "j2\\pi": 483,
    "rh": 484,
    "[T": 485,
    "MPGe": 486,
    "V[x]": 487,
    "a,b,t": 488,
    "|t|": 489,
    "p,q": 490,
    ",a": 491,
    "1,0": 492,
    "0,0": 493,
    "2,0": 494,
    "EX": 495,
    "0,": 496,
    "E[F": 497,
    "aX": 498,
    "320": 499,
    "||x||": 500,
    "n,m": 501,
    "\\tan": 502,
    "MAX": 503,
    "FX": 504,
    "1t": 505,
    "2t": 506,
    ",0": 507,
    "dw": 508,
    "df": 509,
    "dE": 510,
    "1.1Re": 511,
    "M,N": 512,
    "n,g": 513,
    "X,Y": 514,
    "a,c": 515,
    "min": 516,
    "n,0": 517,
    "atan2": 518,
    "y,x": 519,
    "mk": 520,
    "lim": 521,
    "24": 522,
    "|p": 523,
    "1,t": 524,
    "r\\sin\\theta": 525,
    "||v||": 526,
    "IMM": 527,
    "x,": 528,
    "0.010": 529,
    "fd": 530,
    "qV": 531,
    "inf": 532,
    "R,T": 533,
    "np": 534,
    "clo": 535,
    "243": 536,
    "j,k": 537,
    "Cov": 538,
    "[0,1]": 539,
    "pb": 540,
    "aq": 541,
    "ABAB": 542,
    "122": 543,
    "E\\": 544,
    "vv": 545,
    "|f": 546,
    "[2,3]": 547,
    "999": 548,
    "Bx": 549,
    "E\\Delta": 550,
    "x\\sin": 551,
    "1\\sin": 552,
    "\\left|z\\right|": 553,
    "be": 554,
    "a,q,x": 555,
    "2F": 556,
    "a,q,0": 557,
    "env": 558,
    "0,0,a": 559,
    "d\\sigma": 560,
    "GF": 561,
    "\\left||": 562,
    "\\right||": 563,
    ",e": 564,
    "23": 565,
    "1,1,": 566,
    ",1": 567,
    "cd": 568,
    ".v": 569,
    "\\cos\\theta": 570,
    "s\\pm": 571,
    "dr": 572,
    "sT": 573,
    "k,m": 574,
    "ae": 575,
    "Hz": 576,
    "2\\sin": 577,
    "160": 578,
    "[E][S]": 579,
    "[ES]": 580,
    "i\\mu": 581,
    "es": 582,
    "F\\left": 583,
    "....": 584,
    "18": 585,
    "36": 586,
    "q,u": 587,
    "4q": 588,
    "2i": 589,
    "31": 590,
    "9n": 591,
    "NS": 592,
    "IM": 593,
    "RS": 594,
    "px": 595,
    "|q": 596,
    "2\\phi": 597,
    "PV": 598,
    "0.5": 599,
    "29": 600,
    "6,...": 601,
    "ab": 602,
    "[t": 603,
    "2\\cos": 604,
    "x,z": 605,
    "eq": 606,
    "4h": 607,
    "ATM": 608,
    "6x": 609,
    "9x": 610,
    "[\\cos": 611,
    "54": 612,
    "mc": 613,
    "4,3": 614,
    "GS": 615,
    "th": 616,
    "S2": 617,
    "2]|": 618,
    "|h": 619,
    "bxy": 620,
    "cy": 621,
    "dR": 622,
    "4y": 623,
    "22": 624,
    "21": 625,
    "3\\left": 626,
    "2.5\\log": 627,
    "t,": 628,
    "t,y": 629,
    "1,s": 630,
    "1!": 631,
    "4!": 632,
    "5!": 633,
    "145": 634,
    "m\\log": 635,
    "T,V": 636,
    "er": 637,
    "190": 638,
    "6n": 639,
    "12n": 640,
    "e\\in": 641,
    "dM": 642,
    "LM": 643,
    "HM": 644,
    "bM": 645,
    "dS": 646,
    "v,p": 647,
    "H\\left": 648,
    "F[r]": 649,
    "402": 650,
    "Mz": 651,
    "3ax": 652,
    "12a": 653,
    "3\\cos": 654,
    "MRT": 655,
    "dv": 656,
    "|V|": 657,
    "[y": 658,
    "bulk": 659,
    "dN": 660,
    "cS": 661,
    "nl": 662,
    "aN": 663,
    "n\\log": 664,
    "Nu": 665,
    "wp": 666,
    "a,p": 667,
    "BL": 668,
    "RCM": 669,
    "[x]": 670,
    "PA": 671,
    "P\\pi": 672,
    "\\pi\\sigma": 673,
    "oi": 674,
    "1,z": 675,
    "T>T": 676,
    "53": 677,
    "bu": 678,
    "27": 679,
    "k!": 680,
    "ml": 681,
    "var": 682,
    "li": 683,
    "0.667": 684,
    "2ap": 685,
    "ss\\sigma": 686,
    "op": 687,
    "nh": 688,
    "T\\left": 689,
    "n\\right": 690,
    "x\\cos\\theta": 691,
    "bq": 692,
    "cp": 693,
    "14": 694,
    "1,k": 695,
    "2na": 696,
    "k>0": 697,
    "S,A\\": 698,
    ",\\": 699,
    "a,b\\": 700,
    ",S,\\": 701,
    "mf": 702,
    "a,b,k": 703,
    "mass": 704,
    "V\\left": 705,
    "y,n": 706,
    ",z": 707,
    "1,q": 708,
    "3\\pm": 709,
    "40x": 710,
    "SL": 711,
    "2,5": 712,
    "x,f": 713,
    "2gy": 714,
    ",...,n": 715,
    "x,t": 716,
    "norm": 717,
    "Li": 718,
    "m!": 719,
    "c,": 720,
    "1.5": 721,
    "2,3,1": 722,
    "2p": 723,
    ".d": 724,
    "0\\right": 725,
    "a\\cos": 726,
    "4p": 727,
    "600": 728,
    "m\\right": 729,
    "A\\in": 730,
    "en": 731,
    "solv": 732,
    "vt": 733,
    "t\\right": 734,
    "NV": 735,
    "\\left|a\\right|": 736,
    "PG": 737,
    "2,F": 738,
    "\\pi\\right": 739,
    "dF": 740,
    "dL": 741,
    "\\phi,x": 742,
    "bh": 743,
    "5x": 744,
    "ih": 745,
    "t,x": 746,
    "\\left[1": 747,
    "2,1\\right]": 748,
    "[a,b]": 749,
    "kn": 750,
    "Cr": 751,
    "GMm": 752,
    "\\sin\\theta\\cos\\phi": 753,
    "|F": 754,
    "hkl": 755,
    "n\\theta": 756,
    "r\\sin": 757,
    "kg": 758,
    "9.807": 759,
    "Bw": 760,
    "sc": 761,
    "kj": 762,
    "m,n": 763,
    "3,4": 764,
    "iL": 765,
    "gu": 766,
    "gh": 767,
    "||\\mathrm": 768,
    "tA": 769,
    "||": 770,
    "\\left[0,l": 771,
    "1\\right]": 772,
    "M\\right": 773,
    "n,3": 774,
    "n,2": 775,
    "0,2": 776,
    "B,A": 777,
    "0.85": 778,
    "FM": 779,
    "nH": 780,
    "F,G": 781,
    "AS": 782,
    "b1": 783,
    "|C": 784,
    "...i": 785,
    "k\\in\\": 786,
    "ux": 787,
    "28": 788,
    "5,20,0.05": 789,
    "3.25": 790,
    "\\pi,\\pi": 791,
    ",k": 792,
    "P,P": 793,
    "RC": 794,
    "m\\left": 795,
    "2!": 796,
    "3!": 797,
    "kp": 798,
    "i,1": 799,
    "00": 800,
    "load": 801,
    "vu": 802,
    "|z|": 803,
    "[1": 804,
    "per": 805,
    "M,g": 806,
    "ip": 807,
    "Area": 808,
    "i\\pm": 809,
    "i\\sin\\theta": 810,
    "i\\sin": 811,
    "90": 812,
    "Ly": 813,
    "iq": 814,
    "jq": 815,
    "kq": 816,
    "1,...,n": 817,
    "r2": 818,
    "r1": 819,
    "0,1,2,": 820,
    "\\forall": 821,
    "Math": 822,
    "ro": 823,
    ",...,Y": 824,
    "nn": 825,
    "mm": 826,
    "105": 827,
    "V\\mathrm": 828,
    "dm": 829,
    "|m|": 830,
    "[4]": 831,
    "uv": 832,
    "iF": 833,
    "i\\theta": 834,
    "rk": 835,
    "x,g": 836,
    "BF": 837,
    "2z": 838,
    "7\\pi": 839,
    "fsp": 840,
    "Rxx": 841,
    "430": 842,
    "3\\pi": 843,
    "ref": 844,
    "clk": 845,
    "cx": 846,
    ",V": 847,
    "sin": 848,
    "|V": 849,
    ",G": 850,
    "y,z": 851,
    "163": 852,
    "f,v": 853,
    "Nz": 854,
    "cm": 855,
    "n,n": 856,
    "126": 857,
    "la": 858,
    "dI": 859,
    "y\\in": 860,
    "[2]": 861,
    "Ri": 862,
    "n,X": 863,
    "Adj": 864,
    "hc": 865,
    "73": 866,
    "72": 867,
    "c\\Delta": 868,
    "xe": 869,
    "GH": 870,
    "a,": 871,
    "A,C": 872,
    "A,B,C": 873,
    "s,a": 874,
    "vH": 875,
    "peak": 876,
    "129": 877,
    "s,0": 878,
    "s,2": 879,
    "01": 880,
    "02": 881,
    "03": 882,
    "5n": 883,
    "|R": 884,
    "4s": 885,
    "4sr": 886,
    "GM": 887,
    "N0": 888,
    ",...,u": 889,
    "7x": 890,
    "10x": 891,
    "yx": 892,
    ",t\\right": 893,
    "r,t": 894,
    "g\\in": 895,
    "2,1": 896,
    "v\\left": 897,
    "id": 898,
    "X,": 899,
    "Gr": 900,
    "r,V": 901,
    "vw": 902,
    "d,r": 903,
    "By": 904,
    "x,y,z": 905,
    "i,s": 906,
    "2P": 907,
    ",H]": 908,
    "vp": 909,
    "air": 910,
    "Pr": 911,
    "2000": 912,
    "h\\left": 913,
    "G,k": 914,
    "uv,k": 915,
    "Rx": 916,
    "R2": 917,
    "R1": 918,
    "a\\": 919,
    ",r": 920,
    "avg": 921,
    "76": 922,
    "dh": 923,
    "kh": 924,
    "N,q,s": 925,
    "t,d": 926,
    "na": 927,
    "57": 928,
    "0.0362": 929,
    ",...,a": 930,
    "r,n": 931,
    ",S": 932,
    "\\phi\\right": 933,
    "a\\phi": 934,
    "b\\phi": 935,
    "2\\sigma": 936,
    ",u": 937,
    "Ny": 938,
    "2V": 939,
    "XX": 940,
    "m,r": 941,
    "4.5": 942,
    "1.2": 943,
    "148": 944,
    "2\\Delta": 945,
    "M,s": 946,
    "N\\log": 947,
    "1.0": 948,
    "ce": 949,
    "ag": 950,
    "[f": 951,
    "Pic": 952,
    "sol": 953,
    "Nc": 954,
    "mean": 955,
    "AX": 956,
    "BS": 957,
    "|A|": 958,
    "|B|": 959,
    "B,C": 960,
    "2B": 961,
    "sinc": 962,
    "TdS": 963,
    "PdV": 964,
    "X,n": 965,
    "z\\left": 966,
    "5z": 967,
    "0.1": 968,
    "is": 969,
    "1,\\pm": 970,
    "[a": 971,
    "V,w": 972,
    "pg": 973,
    "V2": 974,
    "\\mu,\\sigma": 975,
    "co": 976,
    "sen": 977,
    "Xr": 978,
    "rX": 979,
    "x|f": 980,
    "int": 981,
    "m,k": 982,
    "k\\right": 983,
    "1000": 984,
    ",H": 985,
    "|e": 986,
    "66": 987,
    ",3": 988,
    ",...,x": 989,
    "|B": 990,
    "HS": 991,
    ">e": 992,
    "by": 993,
    "a|": 994,
    "A\\left": 995,
    ",w\\right": 996,
    "20x": 997,
    "320x": 998,
    "i\\in\\": 999,
    "3t": 1000,
    "dP": 1001,
    "2cd": 1002,
    "0.006": 1003,
    "|d": 1004,
    "qx": 1005,
    "6EI": 1006,
    "3L": 1007,
    "and": 1008,
    "[S]": 1009,
    "corr": 1010,
    ".": 1011,
    "|a|": 1012,
    "377": 1013,
    "[q]": 1014,
    "Aff": 1015,
    "at": 1016,
    "Ad": 1017,
    ",M": 1018,
    "||T||": 1019,
    "ie": 1020,
    "ik|x|": 1021,
    ",10": 1022,
    "j!": 1023,
    "j\\in": 1024,
    "NP": 1025,
    "iz": 1026,
    "e,f": 1027,
    "b,c": 1028,
    "|M|e": 1029,
    "i\\phi": 1030,
    "s,x": 1031,
    "Cn": 1032,
    "9,3": 1033,
    ",id": 1034,
    "LFL": 1035,
    "mix": 1036,
    "mg": 1037,
    "[F": 1038,
    "Sdx": 1039,
    "nb": 1040,
    "2.512": 1041,
    "|a": 1042,
    "|s": 1043,
    "3,2": 1044,
    "iut": 1045,
    "4,0": 1046,
    "mat": 1047,
    "x,s": 1048,
    "PB": 1049,
    "nB": 1050,
    "V,E": 1051,
    "4c": 1052,
    "4px": 1053,
    "x\\exists": 1054,
    "ABC": 1055,
    ",R": 1056,
    "2A": 1057,
    "a,m": 1058,
    "2ax": 1059,
    "93": 1060,
    "gcd": 1061,
    "2C": 1062,
    "\\left|x": 1063,
    "\\right|>": 1064,
    "IN": 1065,
    "a\\mathrm": 1066,
    "\\tan\\theta": 1067,
    "s\\neq": 1068,
    "TF": 1069,
    "jm": 1070,
    "ue": 1071,
    "sn": 1072,
    "S,": 1073,
    "9b": 1074,
    "8b": 1075,
    "27b": 1076,
    "8\\pi": 1077,
    "dA": 1078,
    ",dA": 1079,
    "kk": 1080,
    "veh": 1081,
    "lm": 1082,
    "0.80": 1083,
    "j1.40": 1084,
    "aa": 1085,
    "1.8\\pm": 1086,
    "g,h\\": 1087,
    "f,h\\": 1088,
    "SE": 1089,
    "cc": 1090,
    "dc": 1091,
    "dd": 1092,
    "drag": 1093,
    "3|": 1094,
    "Mf": 1095,
    "Free": 1096,
    "1.051": 1097,
    "4096": 1098,
    "[d]": 1099,
    "t,f": 1100,
    "f,": 1101,
    "tf": 1102,
    "A]\\": 1103,
    "x,x": 1104,
    "h,y": 1105,
    "hk": 1106,
    "obs": 1107,
    "|L|": 1108,
    "1000n": 1109,
    "t,z": 1110,
    "kt": 1111,
    "0,1,1": 1112,
    "i\\": 1113,
    "Cat": 1114,
    "i>j": 1115,
    "j,j": 1116,
    "ed": 1117,
    "x\\phi": 1118,
    "44": 1119,
    "|G|": 1120,
    "idx": 1121,
    "q>2": 1122,
    "NX": 1123,
    "9.8": 1124,
    "q\\in": 1125,
    "RR": 1126,
    "IG": 1127,
    "x,y,z\\": 1128,
    "c,b": 1129,
    ",...,k": 1130,
    "B\\log": 1131,
    "SINR": 1132,
    "42": 1133,
    "kx": 1134,
    "2H": 1135,
    "f\\Delta": 1136,
    "60": 1137,
    "s,t": 1138,
    "sl": 1139,
    ",n\\": 1140,
    "10,000": 1141,
    "0.10": 1142,
    "Lw": 1143,
    "Ln": 1144,
    "Ld": 1145,
    "CEi": 1146,
    "1024": 1147,
    "ra": 1148,
    "0x": 1149,
    "Ma": 1150,
    "ab\\sin": 1151,
    "1,2,...,m\\": 1152,
    "\\Delta\\theta": 1153,
    "4E": 1154,
    "2,3,": 1155,
    "S[p": 1156,
    "l]": 1157,
    "od": 1158,
    "3.57": 1159,
    "8m": 1160,
    "61": 1161,
    "1\\mathrm": 1162,
    "MV": 1163,
    "ry": 1164,
    "sy": 1165,
    "299": 1166,
    "q,": 1167,
    "S\\mathrm": 1168,
    "p\\mathrm": 1169,
    "ikx": 1170,
    ",\\phi": 1171,
    "[P": 1172,
    ",L": 1173,
    "\\pm\\infty": 1174,
    "1,4": 1175,
    "S,S": 1176,
    "n,G": 1177,
    "EF": 1178,
    "X,A": 1179,
    "pl": 1180,
    "19": 1181,
    "sp": 1182,
    "i,0": 1183,
    "aba": 1184,
    "dl": 1185,
    "yf": 1186,
    ">0.01": 1187,
    "b\\log": 1188,
    "t,j": 1189,
    "Ext": 1190,
    "kG": 1191,
    "Y,X": 1192,
    "l0": 1193,
    "R[S": 1194,
    "\\infty,1": 1195,
    "0.75": 1196,
    "R[x": 1197,
    "nf": 1198,
    ">S": 1199,
    "A,t": 1200,
    "k,k": 1201,
    "0.8": 1202,
    "|S": 1203,
    "rr": 1204,
    "|z": 1205,
    "VT": 1206,
    "aL": 1207,
    "5b": 1208,
    "A,B": 1209,
    "wt": 1210,
    "2n!": 1211,
    "z,x": 1212,
    "sum": 1213,
    "Fb": 1214,
    "p,1": 1215,
    "p,m": 1216,
    "pV": 1217,
    "mR": 1218,
    "6A": 1219,
    "p\\left": 1220,
    "q\\left": 1221,
    "j,i": 1222,
    "2GM": 1223,
    "6,": 1224,
    "t\\in\\": 1225,
    "0,1,2,3,": 1226,
    ",N\\": 1227,
    "S\\left": 1228,
    "48": 1229,
    "sw": 1230,
    "|t": 1231,
    "iY": 1232,
    "i\\sigma": 1233,
    "q\\phi": 1234,
    "E,m": 1235,
    "x\\in[x": 1236,
    "512": 1237,
    "inv": 1238,
    "kV": 1239,
    "AC": 1240,
    "ay": 1241,
    "bz": 1242,
    "3,2,1": 1243,
    "a,a": 1244,
    "g\\mu": 1245,
    "PM": 1246,
    "4b": 1247,
    "\\exists": 1248,
    "0,0,0,1": 1249,
    "st": 1250,
    "P2": 1251,
    "ar": 1252,
    "16y": 1253,
    "5y": 1254,
    "2v\\sin\\theta": 1255,
    "3,": 1256,
    "rG": 1257,
    "3600": 1258,
    "80L": 1259,
    "x,y,z,t": 1260,
    "base": 1261,
    "diag\\left": 1262,
    "X\\right": 1263,
    "k,\\sigma": 1264,
    "rt": 1265,
    "gi": 1266,
    "371": 1267,
    "tr": 1268,
    "CINT": 1269,
    "s,v": 1270,
    ",t\\": 1271,
    "|A": 1272,
    "ns": 1273,
    "now": 1274,
    "[g": 1275,
    "iy": 1276,
    "1728": 1277,
    "RIT": 1278,
    "4,2": 1279,
    "tan": 1280,
    "gt": 1281,
    "old": 1282,
    "wv": 1283,
    "TE": 1284,
    "p,u": 1285,
    "P,C": 1286,
    "exp": 1287,
    "X,d": 1288,
    ",...,": 1289,
    "p,": 1290,
    "X,\\mu": 1291,
    "f\\right": 1292,
    "Cij": 1293,
    "Set": 1294,
    "L\\in": 1295,
    "\\infty,i": 1296,
    "e\\Delta": 1297,
    "FP": 1298,
    "a,x": 1299,
    "|v": 1300,
    "tor": 1301,
    "SNR": 1302,
    "RRB": 1303,
    "\\infty,a": 1304,
    "add": 1305,
    "5,0": 1306,
    "x[n]": 1307,
    "u[n]": 1308,
    "ut": 1309,
    "m\\Delta": 1310,
    "k[A][B]": 1311,
    "1,n": 1312,
    "f2": 1313,
    "FG": 1314,
    "trt": 1315,
    "3r": 1316,
    "f\\": 1317,
    "Mds": 1318,
    "ET": 1319,
    "a,b,c,d,e\\": 1320,
    "L1": 1321,
    "\\pi,\\pi]": 1322,
    "194": 1323,
    "c\\log": 1324,
    "s\\": 1325,
    "N\\left": 1326,
    "sF": 1327,
    "div": 1328,
    "grad": 1329,
    "X,E": 1330,
    "1,b": 1331,
    "[H,": 1332,
    "a1": 1333,
    "r]": 1334,
    "e\\neq": 1335,
    "0.3\\pm": 1336,
    "GeV": 1337,
    "6v": 1338,
    "f\\in": 1339,
    "C[0,1]": 1340,
    "\\left|A\\right|": 1341,
    "CE": 1342,
    "z,u": 1343,
    "uz": 1344,
    "u,u": 1345,
    "d\\phi": 1346,
    "X,F": 1347,
    "Ls": 1348,
    "Cs": 1349,
    "GG": 1350,
    "121": 1351,
    "108": 1352,
    "bol": 1353,
    "eV": 1354,
    "cf": 1355,
    "RI": 1356,
    "Tk": 1357,
    "nm": 1358,
    "Aa": 1359,
    "inx": 1360,
    "[e]": 1361,
    "4\\sin": 1362,
    "AxBy": 1363,
    "cat": 1364,
    "ls": 1365,
    "sa": 1366,
    ",l": 1367,
    "pA": 1368,
    "||x": 1369,
    "y||": 1370,
    "|||x||": 1371,
    "Nr": 1372,
    "intf": 1373,
    "c,d": 1374,
    "AP": 1375,
    "1,3": 1376,
    "2,7": 1377,
    "ijk": 1378,
    "AV": 1379,
    "k,r": 1380,
    "r>": 1381,
    "MX": 1382,
    "P\\left": 1383,
    "x|": 1384,
    "N,": 1385,
    "x,0": 1386,
    "576": 1387,
    "1x": 1388,
    "0.9": 1389,
    "8.3": 1390,
    "[z,x": 1391,
    ",y]": 1392,
    "ss": 1393,
    "26!": 1394,
    "6!": 1395,
    "IVIM": 1396,
    "perf": 1397,
    "diff": 1398,
    ".P": 1399,
    "Fr": 1400,
    ",...,y": 1401,
    "2l": 1402,
    "ki": 1403,
    "Ih": 1404,
    "C||x": 1405,
    "crit": 1406,
    "55": 1407,
    "4320": 1408,
    "4739": 1409,
    "|M|": 1410,
    "3h": 1411,
    "3\\right": 1412,
    "n\\Delta": 1413,
    "sun": 1414,
    "Ce": 1415,
    "high": 1416,
    "low": 1417,
    "R[X]": 1418,
    ">N": 1419,
    "a\\in": 1420,
    "720": 1421,
    ",H\\": 1422,
    "dir": 1423,
    "k[x": 1424,
    "200": 1425,
    "i\\pi": 1426,
    "BX": 1427,
    "8y": 1428,
    ",\\theta": 1429,
    "k,v": 1430,
    "n\\pi": 1431,
    "T,P": 1432,
    "68": 1433,
    "E\\right": 1434,
    "c,c": 1435,
    "16\\pi": 1436,
    "PF": 1437,
    "k,data": 1438,
    "S,T": 1439,
    "fk": 1440,
    "[I]": 1441,
    "[M]": 1442,
    "ty": 1443,
    "am": 1444,
    "1836": 1445,
    "r,x\\right": 1446,
    "pF": 1447,
    "T\\Delta": 1448,
    "...P": 1449,
    "120": 1450,
    "[6]": 1451,
    "x\\left": 1452,
    "E3": 1453,
    "C3": 1454,
    ">y": 1455,
    "0,k": 1456,
    "|r|": 1457,
    "2N": 1458,
    "2T": 1459,
    "136": 1460,
    "MC": 1461,
    "TC": 1462,
    "FC": 1463,
    "40": 1464,
    "363": 1465,
    "mu": 1466,
    ">n": 1467,
    "j0": 1468,
    "2\\sin\\theta\\cos\\theta": 1469,
    "v[": 1470,
    "prt": 1471,
    "2d": 1472,
    "kf": 1473,
    "0.18": 1474,
    "|\\right": 1475,
    "4t": 1476,
    "rpm": 1477,
    "d,d": 1478,
    "222": 1479,
    "Se": 1480,
    "0.0": 1481,
    "X[x,y]": 1482,
    "kd": 1483,
    "BP": 1484,
    "avg,n": 1485,
    "l\\neq": 1486,
    "2\\log": 1487,
    "eH": 1488,
    "so": 1489,
    "n,": 1490,
    "88": 1491,
    "F[y]": 1492,
    "2\\right": 1493,
    "kN": 1494,
    "g\\left": 1495,
    "4.7": 1496,
    "k\\left": 1497,
    "9.5": 1498,
    "[i]": 1499,
    "0.1139": 1500,
    "1.12": 1501,
    "91": 1502,
    "k\\neq": 1503,
    "cb": 1504,
    "ri": 1505,
    "vt\\sin\\theta": 1506,
    "rank": 1507,
    "3b": 1508,
    "2b": 1509,
    "0a": 1510,
    "5.2": 1511,
    "\\right|e": 1512,
    "i,i": 1513,
    "3g": 1514,
    "cr": 1515,
    "0,5": 1516,
    "j\\phi": 1517,
    "j\\sin": 1518,
    "4.36": 1519,
    "b\\theta": 1520,
    "c\\right": 1521,
    "qE": 1522,
    "38": 1523,
    "43": 1524,
    "59": 1525,
    "260": 1526,
    "vz": 1527,
    "a.P": 1528,
    "vi": 1529,
    "[E": 1530,
    ",E": 1531,
    "tX": 1532,
    "nat": 1533,
    "g,i": 1534,
    "v,": 1535,
    "2|a": 1536,
    "FT": 1537,
    "\\log\\": 1538,
    "SF": 1539,
    "a\\neq": 1540,
    "fdr": 1541,
    "0.46": 1542,
    "6r": 1543,
    "gz": 1544,
    "PR": 1545,
    "CT": 1546,
    "\\tan\\phi": 1547,
    "c]": 1548,
    "56": 1549,
    "3,0": 1550,
    "mol": 1551,
    "s,T": 1552,
    "Si": 1553,
    "2\\sin\\left": 1554,
    "c||u||": 1555,
    "dg": 1556,
    "xt": 1557,
    "[g,h]": 1558,
    "u\\left": 1559,
    "mgh": 1560,
    "b,a": 1561,
    "mt": 1562,
    "[m,": 1563,
    "rc": 1564,
    "dn": 1565,
    "i0": 1566,
    "|E|": 1567,
    "TX": 1568,
    "3RT": 1569,
    "8P": 1570,
    "ai": 1571,
    "bi": 1572,
    "spec": 1573,
    "\\tan\\left": 1574,
    "2,n": 1575,
    "144": 1576,
    "41": 1577,
    "47": 1578,
    "3n": 1579,
    "aB": 1580,
    "\\left|f": 1581,
    "a\\right": 1582,
    "b\\right": 1583,
    "[j]": 1584,
    "ae,0": 1585,
    "Hom": 1586,
    "\\sin\\theta\\sin\\phi": 1587,
    "a>1": 1588,
    "[H": 1589,
    "...A": 1590,
    "y,y": 1591,
    "x\\div": 1592,
    "i,kkmm": 1593,
    "MR": 1594,
    "1...n\\": 1595,
    "xdx": 1596,
    "7,3": 1597,
    "A\\Delta": 1598,
    "1234": 1599,
    "143": 1600,
    "40.219": 1601,
    "0.4": 1602,
    "6.937\\right": 1603,
    "6.3": 1604,
    "11.57": 1605,
    "p\\in": 1606,
    "M,": 1607,
    "r,\\theta,z": 1608,
    "5760": 1609,
    "w,v": 1610,
    "sgn": 1611,
    "BB": 1612,
    "TB": 1613,
    "SB": 1614,
    "CS": 1615,
    "[y]": 1616,
    "99": 1617,
    "2]": 1618,
    "PC": 1619,
    "8T": 1620,
    "XB": 1621,
    "4AC": 1622,
    "tol": 1623,
    "3uv": 1624,
    "CF": 1625,
    "[\\sigma": 1626,
    "25a": 1627,
    "RV": 1628,
    "4aE": 1629,
    ",...,v": 1630,
    "\\pm\\pi": 1631,
    "97": 1632,
    "nk": 1633,
    "4ax": 1634,
    "yc": 1635,
    "[Y": 1636,
    "MSE": 1637,
    ">x": 1638,
    "cz": 1639,
    "|k": 1640,
    "di": 1641,
    "p0": 1642,
    "m0": 1643,
    "1.09": 1644,
    "0,j": 1645,
    "j\\Delta": 1646,
    "h,x": 1647,
    "rect": 1648,
    "\\cos\\phi": 1649,
    "n2": 1650,
    "\\sin\\pi": 1651,
    "0.06": 1652,
    "4bc": 1653,
    "y]": 1654,
    "T,T": 1655,
    "0.426": 1656,
    "Ak": 1657,
    "1.85": 1658,
    "1.17": 1659,
    "FA": 1660,
    "1\\pm": 1661,
    "1,m": 1662,
    "2,m": 1663,
    "pc\\right": 1664,
    "6k": 1665,
    "1...m": 1666,
    "\\left[y": 1667,
    "\\pm\\phi": 1668,
    ",F": 1669,
    "2R\\sin": 1670,
    "IP": 1671,
    "IMC": 1672,
    "1i": 1673,
    "r,h": 1674,
    "100,000": 1675,
    ",...,i": 1676,
    "4f": 1677,
    "true": 1678,
    "5\\pi": 1679,
    "hA": 1680,
    "4,1": 1681,
    "105r": 1682,
    "20r": 1683,
    "2at": 1684,
    "2,2,0": 1685,
    "CC": 1686,
    "EV": 1687,
    "wind": 1688,
    "21x": 1689,
    "c1": 1690,
    "xxx": 1691,
    "c\\sin": 1692,
    "gc": 1693,
    "106": 1694,
    "[t,t": 1695,
    "T]": 1696,
    "Tf": 1697,
    "cI": 1698,
    "j3": 1699,
    "gas": 1700,
    ",...,p": 1701,
    "nT": 1702,
    "1,2,3,": 1703,
    "t,a": 1704,
    "da": 1705,
    "8a": 1706,
    "|Y|": 1707,
    "127": 1708,
    "syn": 1709,
    "jj": 1710,
    "RxR": 1711,
    "Rt": 1712,
    "LI": 1713,
    "365": 1714,
    "Lu": 1715,
    "Eb": 1716,
    "i,j,k": 1717,
    "T\\right": 1718,
    "1,1]": 1719,
    "[P,L]": 1720,
    "js": 1721,
    "x,y,y": 1722,
    "RL": 1723,
    "dBm": 1724,
    "k]": 1725,
    "w[n]": 1726,
    "kl": 1727,
    "Beta": 1728,
    "i,k": 1729,
    "110": 1730,
    "x,\\sigma": 1731,
    "x,1": 1732,
    "\\sigma[1]": 1733,
    "\\sigma[L]": 1734,
    "[1]": 1735,
    "[L]": 1736,
    "k,t": 1737,
    "1A": 1738,
    "v,w": 1739,
    "|n|": 1740,
    "0.25": 1741,
    "CI": 1742,
    "2,t": 1743,
    "k\\in": 1744,
    "hf": 1745,
    "bj": 1746,
    "lcm": 1747,
    "sys": 1748,
    "prf": 1749,
    "133": 1750,
    "84": 1751,
    "[n,k": 1752,
    "G,H": 1753,
    "i,t": 1754,
    "80": 1755,
    "ion": 1756,
    "175": 1757,
    "1.25": 1758,
    "140": 1759,
    "qr": 1760,
    "ps": 1761,
    "2eV": 1762,
    "CV": 1763,
    "In": 1764,
    "Imf": 1765,
    "pp": 1766,
    "fC": 1767,
    "XA": 1768,
    "MG": 1769,
    "M,w": 1770,
    "0.03": 1771,
    "1.4": 1772,
    "su": 1773,
    ".m": 1774,
    "3p": 1775,
    "r,\\theta": 1776,
    "RBI": 1777,
    "spw": 1778,
    "cw": 1779,
    "or": 1780,
    ".\\mu": 1781,
    "3,1": 1782,
    "4\\left": 1783,
    "4e": 1784,
    "n,i": 1785,
    "my": 1786,
    "az": 1787,
    "Pb": 1788,
    "0j": 1789,
    "X,X": 1790,
    "t\\mu": 1791,
    "x,y,t": 1792,
    "Vect": 1793,
    "R\\left": 1794,
    "cv": 1795,
    "10.2": 1796,
    "BIl": 1797,
    "slog": 1798,
    "q\\": 1799,
    "r,r": 1800,
    "P,q,g": 1801,
    ",c,d,h": 1802,
    "w,x,y,z": 1803,
    "b0": 1804,
    "i,n": 1805,
    "1.8": 1806,
    "2.8": 1807,
    "\\left[e": 1808,
    "[i,j]": 1809,
    "CN": 1810,
    "ni": 1811,
    "rx": 1812,
    "il": 1813,
    "k|x": 1814,
    "ES": 1815,
    "Ir": 1816,
    "2c": 1817,
    "a,b,z": 1818,
    "jobs": 1819,
    "kv": 1820,
    ",...,s": 1821,
    "d[P]": 1822,
    "[A][M]": 1823,
    "4.6": 1824,
    "1,000,000": 1825,
    "5R": 1826,
    "cos": 1827,
    "ex": 1828,
    "liq": 1829,
    "vap": 1830,
    "|r": 1831,
    "PY": 1832,
    "5\\sin": 1833,
    "[1,4]": 1834,
    "0.598": 1835,
    "ze": 1836,
    "TL": 1837,
    "sm": 1838,
    "rs": 1839,
    "|2": 1840,
    "|3": 1841,
    "|4": 1842,
    "|14": 1843,
    "BAF": 1844,
    "11\\pi": 1845,
    "k,0": 1846,
    "tan\\phi": 1847,
    "x\\sin\\theta": 1848,
    "y\\cos\\theta": 1849,
    "f\\sin": 1850,
    ",j": 1851,
    "2|": 1852,
    "r,s": 1853,
    "5|": 1854,
    "3.6": 1855,
    "258": 1856,
    ",...x": 1857,
    "3\\theta": 1858,
    "3\\sin": 1859,
    "\\theta\\cos\\theta": 1860,
    "4\\cos": 1861,
    "3\\cos\\theta": 1862,
    "d,n": 1863,
    "d\\log": 1864,
    "880": 1865,
    "r\\cos": 1866,
    "std": 1867,
    "\\theta\\right": 1868,
    "ji": 1869,
    "A\\right": 1870,
    "frac": 1871,
    "LA": 1872,
    "0.005": 1873,
    "34": 1874,
    "abcd": 1875,
    "i\\Delta": 1876,
    "2av": 1877,
    ">C": 1878,
    "Ref": 1879,
    "2\\mathrm": 1880,
    "R>r": 1881,
    "s,i": 1882,
    "m\\in": 1883,
    "10\\log": 1884,
    "tY": 1885,
    "Y[x,y]": 1886,
    "LG": 1887,
    "0,1,2": 1888,
    ",\\infty]": 1889,
    "rT": 1890,
    "N\\mu": 1891,
    "gs": 1892,
    "Ace": 1893,
    "ft\\": 1894,
    "ib": 1895,
    "r,k": 1896,
    "AH": 1897,
    "kr": 1898,
    "BH": 1899,
    "2.4": 1900,
    "2,2": 1901,
    "3,3": 1902,
    "me": 1903,
    "nS": 1904,
    "ny": 1905,
    "GT": 1906,
    "sh": 1907,
    "2bc": 1908,
    "C,": 1909,
    "u,x": 1910,
    "a\\sin\\left": 1911,
    "u\\right": 1912,
    "v\\right": 1913,
    "2gh": 1914,
    "A.a": 1915,
    "j1": 1916,
    ".a": 1917,
    "12,34": 1918,
    "4ik": 1919,
    "170": 1920,
    "|p|": 1921,
    "9y": 1922,
    "45y": 1923,
    "res": 1924,
    "wR": 1925,
    "cal": 1926,
    "x,k": 1927,
    "0.59": 1928,
    "500": 1929,
    "H,H": 1930,
    "Br": 1931,
    "Sp": 1932,
    "o,r": 1933,
    "vL": 1934,
    "TEE": 1935,
    "rl": 1936,
    "act": 1937,
    "mgL": 1938,
    "P\\in": 1939,
    "X,L": 1940,
    "x,b": 1941,
    "0,x": 1942,
    "spB": 1943,
    "2r\\sin\\left": 1944,
    "S1": 1945,
    "si": 1946,
    "9p": 1947,
    "[a]p": 1948,
    "\\infty,": 1949,
    "\\infty]": 1950,
    "det": 1951,
    "\\phi\\left": 1952,
    "r\\right": 1953,
    "|c": 1954,
    "y\\left": 1955,
    "iak": 1956,
    "sl,m": 1957,
    "AGM": 1958,
    "kers": 1959,
    "6\\pi": 1960,
    "bip": 1961,
    "nF": 1962,
    "YY": 1963,
    "cxy": 1964,
    "ey": 1965,
    "4I": 1966,
    "z\\right": 1967,
    "sz": 1968,
    "red": 1969,
    "\\sigma>\\sigma": 1970,
    ">1": 1971,
    "4000": 1972,
    "1500": 1973,
    "2500": 1974,
    "4bd": 1975,
    "2|E|": 1976,
    "S,R": 1977,
    "Gm": 1978,
    "8z": 1979,
    "4z": 1980,
    "14z": 1981,
    "Hn": 1982,
    "nq": 1983,
    "IB": 1984,
    "1100": 1985,
    "A[x": 1986,
    "q]": 1987,
    "\\log\\log": 1988,
    "f[x": 1989,
    "an": 1990,
    "RA": 1991,
    "k1": 1992,
    "2ab": 1993,
    "NF": 1994,
    "dG": 1995,
    "eN": 1996,
    "0\\neq": 1997,
    "p,v": 1998,
    "2,3": 1999,
    "GR": 2000,
    "2.5": 2001,
    "lf": 2002,
    "0.5\\left": 2003,
    "\\theta,\\phi": 2004,
    "s1": 2005,
    "sRC": 2006,
    "w1": 2007,
    "w2": 2008,
    "t,i": 2009,
    "mx": 2010,
    "ikt": 2011,
    "|S|": 2012,
    "k\\pi": 2013,
    "3N": 2014,
    "ijkl": 2015,
    "i\\right": 2016,
    "yyy": 2017,
    "d\\left": 2018,
    ",x\\right": 2019,
    "dxdy": 2020,
    "zy": 2021,
    "G\\sin": 2022,
    "fH": 2023,
    "gf": 2024,
    "3axy": 2025,
    "...p": 2026,
    "g]": 2027,
    "[X,Y]": 2028,
    "Yf": 2029,
    "P1": 2030,
    "Rc": 2031,
    "|n": 2032,
    "4n|": 2033,
    "n,m,p": 2034,
    "surf": 2035,
    "[d,e]": 2036,
    "lr": 2037,
    "us": 2038,
    "dist": 2039,
    ">2": 2040,
    "mw": 2041,
    "tp": 2042,
    "rev": 2043,
    "6,2": 2044,
    "z,\\mathrm": 2045,
    "203": 2046,
    "yr": 2047,
    "gr": 2048,
    "b,k": 2049,
    "\\sin[": 2050,
    ">c": 2051,
    "reg": 2052,
    "75": 2053,
    "m,b": 2054,
    "y\\sin\\theta": 2055,
    "|M": 2056,
    "1,f": 2057,
    "[n": 2058,
    "103": 2059,
    "5a": 2060,
    "v,u": 2061,
    "S,P": 2062,
    "\\div": 2063,
    "d,s": 2064,
    "8x": 2065,
    "py": 2066,
    "69": 2067,
    "440": 2068,
    "qj": 2069,
    "[r,r": 2070,
    "0!": 2071,
    "\\mu\\neq": 2072,
    "sf": 2073,
    "67": 2074,
    "a,y": 2075,
    "u\\in": 2076,
    "E[Y]": 2077,
    "Bk": 2078,
    "8Fr": 2079,
    "6,4": 2080,
    "ym": 2081,
    "xm": 2082,
    "0,s": 2083,
    "0.08": 2084,
    "0.9Y": 2085,
    "ks": 2086,
    "dC": 2087,
    "Tv": 2088,
    "x\\cos": 2089,
    "|g|": 2090,
    "deg": 2091,
    ">\\theta": 2092,
    "n,d": 2093,
    "a,A": 2094,
    "[c,d]": 2095,
    "d]": 2096,
    "107": 2097,
    "i,w": 2098,
    "V,m": 2099,
    ">a": 2100,
    "63": 2101,
    "xN": 2102,
    "176": 2103,
    "P,t": 2104,
    "[w": 2105,
    "1,d": 2106,
    "N,d": 2107,
    "j\\left": 2108,
    "slip": 2109,
    "I\\left": 2110,
    "x,y\\right": 2111,
    "i,": 2112,
    "gx": 2113,
    "132": 2114,
    ",p,p": 2115,
    "Bl": 2116,
    "3v": 2117,
    "vdt": 2118,
    "CM": 2119,
    "t>s": 2120,
    "586": 2121,
    "102": 2122,
    "i2\\pi": 2123,
    "bn": 2124,
    "xp": 2125,
    "sec": 2126,
    "X\\left": 2127,
    "em": 2128,
    "0.20": 2129,
    "sinx": 2130,
    "P,m": 2131,
    "4\\theta": 2132,
    "\\theta\\left": 2133,
    "17y": 2134,
    "4N\\mu": 2135,
    "f,g": 2136,
    "rz": 2137,
    "fg,h\\": 2138,
    "g\\": 2139,
    "V[G": 2140,
    "V]": 2141,
    "95": 2142,
    "87": 2143,
    "[G": 2144,
    "h\\neq": 2145,
    "2log": 2146,
    "Mm": 2147,
    "0.01": 2148,
    "0.99": 2149,
    "g,h": 2150,
    "[g]": 2151,
    "Hct": 2152,
    "RBC": 2153,
    "\\log|x|": 2154,
    "0,0,0": 2155,
    "r\\sigma": 2156,
    "Vp": 2157,
    "dX": 2158,
    "I1": 2159,
    "x>\\mu": 2160,
    "1.6": 2161,
    "uvw": 2162,
    "N!": 2163,
    "n,t": 2164,
    "a,0,0": 2165,
    "2q": 2166,
    "j\\in\\": 2167,
    "0,0.5,1,1.5,": 2168,
    "esc": 2169,
    "Sq": 2170,
    "P9": 2171,
    "LH": 2172,
    ",...,X": 2173,
    "\\mu\\left": 2174,
    "i\\neq": 2175,
    "b\\div": 2176,
    "\\sigma,": 2177,
    "1.3": 2178,
    "8k": 2179,
    "Bv": 2180,
    "sv": 2181,
    "seqs": 2182,
    "bhl": 2183,
    "499": 2184,
    "qf": 2185,
    "2xc": 2186,
    "ICS": 2187,
    ",...X": 2188,
    "wl": 2189,
    "dH\\left": 2190,
    "Vdp": 2191,
    "Al": 2192,
    "|\\": 2193,
    "NC": 2194,
    "h\\in": 2195,
    "A,X": 2196,
    "Aw": 2197,
    "1,0,0": 2198,
    "s,z": 2199,
    "Sl": 2200,
    "x,m": 2201,
    "z,m": 2202,
    "TS": 2203,
    "n>k": 2204,
    "CRF": 2205,
    "85": 2206,
    "s,s": 2207,
    "ikr": 2208,
    "L[y]": 2209,
    "0,q": 2210,
    "704": 2211,
    "r>r": 2212,
    "m\\theta": 2213,
    "|q|B": 2214,
    "16x": 2215,
    "III": 2216,
    "2.3": 2217,
    "w,n": 2218,
    "x,v": 2219,
    "1j": 2220,
    "g\\phi": 2221,
    "c>0": 2222,
    "167": 2223,
    "k[t": 2224,
    ",...,t": 2225,
    "71": 2226,
    "RBB": 2227,
    "||B||": 2228,
    "Cut": 2229,
    "1,2,3,4": 2230,
    "A,A": 2231,
    ",A": 2232,
    ",...,A": 2233,
    "262": 2234,
    "537": 2235,
    "640": 2236,
    "768": 2237,
    "N\\pi": 2238,
    ",...,m": 2239,
    "[v": 2240,
    "q,q": 2241,
    "x\\tan": 2242,
    "q>": 2243,
    "i,2": 2244,
    "BGM": 2245,
    "ind": 2246,
    "135": 2247,
    "E[X]": 2248,
    "250": 2249,
    "cos\\phi": 2250,
    "|E": 2251,
    "10!": 2252,
    "3,628,800": 2253,
    "k\\": 2254,
    "rdr": 2255,
    "z\\Delta": 2256,
    "tn": 2257,
    ">b": 2258,
    "[89": 2259,
    "85]": 2260,
    "v\\sin": 2261,
    "2187": 2262,
    "172": 2263,
    "axis": 2264,
    "PGL": 2265,
    "x\\": 2266,
    "X\\": 2267,
    "\\log||C": 2268,
    "EP": 2269,
    "YA": 2270,
    "h,": 2271,
    "h,a": 2272,
    "A\\sigma": 2273,
    "e\\": 2274,
    "IC": 2275,
    "iH": 2276,
    "Spec": 2277,
    "R[\\Delta": 2278,
    "5F": 2279,
    "m\\pi": 2280,
    "db": 2281,
    "\\sin\\phi": 2282,
    "MPC": 2283,
    "|T": 2284,
    "tty": 2285,
    "xxy": 2286,
    "Fu": 2287,
    ",...,H": 2288,
    "X,f,": 2289,
    "Prob": 2290,
    "pure": 2291,
    "ge": 2292,
    "time": 2293,
    "u[": 2294,
    "Mgr": 2295,
    "rd": 2296,
    "Ci": 2297,
    "\\infty,P": 2298,
    "t,s\\right": 2299,
    "EXX": 2300,
    "BR": 2301,
    "cos\\theta": 2302,
    "181": 2303,
    "3\\sin\\theta": 2304,
    "6,n": 2305,
    "15x": 2306,
    "4r": 2307,
    "|\\cos\\theta": 2308,
    ">r": 2309,
    "Ca": 2310,
    "bf": 2311,
    "k,h": 2312,
    "j,q": 2313,
    "j,t,q": 2314,
    "MAP": 2315,
    "nd": 2316,
    "3.4": 2317,
    "y,E": 2318,
    "bend": 2319,
    "SAR": 2320,
    "Ei": 2321,
    "\\left[f": 2322,
    "|b": 2323,
    "d[A]": 2324,
    "k[A]": 2325,
    "3k": 2326,
    "ch": 2327,
    "3.5": 2328,
    "MeV": 2329,
    "[e": 2330,
    "[0,N]": 2331,
    "2gd": 2332,
    "1.33": 2333,
    "6h": 2334,
    "M,x": 2335,
    "a1,a2,a3,...": 2336,
    "IS": 2337,
    "2G": 2338,
    "||f": 2339,
    "63x": 2340,
    "84x": 2341,
    "96": 2342,
    "211": 2343,
    "vT": 2344,
    "462": 2345,
    "t,x,y,z": 2346,
    "nX": 2347,
    "NPV": 2348,
    "iat": 2349,
    "2m\\left": 2350,
    ",k\\": 2351,
    "82": 2352,
    "246": 2353,
    "h[n]": 2354,
    "Th": 2355,
    "M,M": 2356,
    ",N": 2357,
    "7.5": 2358,
    "ws": 2359,
    "1.6\\pm": 2360,
    ",o": 2361,
    "tE": 2362,
    "4T": 2363,
    "\\cos\\theta,\\sin\\theta": 2364,
    "128": 2365,
    "74": 2366,
    "].": 2367,
    "m,l": 2368,
    "IR": 2369,
    "Cr\\": 2370,
    "B\\": 2371,
    "C\\": 2372,
    "Pi": 2373,
    "w\\log": 2374,
    "E[R": 2375,
    "ydy": 2376,
    "zdz": 2377,
    "2re": 2378,
    "t>": 2379,
    "5p": 2380,
    "125": 2381,
    "f1": 2382,
    "2\\cos\\left": 2383,
    "R[x]": 2384,
    "2S": 2385,
    "400": 2386,
    "3.5S": 2387,
    "dx\\right": 2388,
    "z,t": 2389,
    "zt": 2390,
    "1,2,...,n": 2391,
    "Ff": 2392,
    "Eq": 2393,
    "[i": 2394,
    "0,b": 2395,
    "coth": 2396,
    "wet": 2397,
    "k\\theta": 2398,
    "4j": 2399,
    "2.7x": 2400,
    "0.7": 2401,
    "x,\\mu,\\sigma": 2402,
    "ox": 2403,
    "ox,0": 2404,
    "fu,1": 2405,
    ",x]": 2406,
    "uu": 2407,
    "FVA": 2408,
    "au": 2409,
    "enc": 2410,
    ">u": 2411,
    "b\\left": 2412,
    "Rf": 2413,
    "8,4": 2414,
    "3T": 2415,
    ",...,e": 2416,
    "star": 2417,
    "V,T": 2418,
    "xs": 2419,
    "2X": 2420,
    "0.0050": 2421,
    "2,1,5": 2422,
    "3P": 2423,
    "pH": 2424,
    "1.5\\pm": 2425,
    "||xy||": 2426,
    "||x||||y||": 2427,
    "1,y": 2428,
    "sim": 2429,
    "data": 2430,
    "1a": 2431,
    "254": 2432,
    "E[X": 2433,
    "178": 2434,
    "6.5": 2435,
    "ikz": 2436,
    "a\\theta": 2437,
    "11n": 2438,
    "core": 2439,
    "...r": 2440,
    "8s": 2441,
    "ve": 2442,
    "LE": 2443,
    "2,\\pi": 2444,
    "ya": 2445,
    "ea": 2446,
    ",sy": 2447,
    "14.18": 2448,
    "2xdx": 2449,
    "2ydy": 2450,
    "0,S": 2451,
    ",1,": 2452,
    "MP,C": 2453,
    "ASE": 2454,
    "r,0": 2455,
    "4i": 2456,
    "Sys": 2457,
    "v\\in": 2458,
    "HP": 2459,
    "a\\left": 2460,
    "GmM": 2461,
    "ba": 2462,
    "i,m": 2463,
    "Eq.1": 2464,
    "bc\\neq": 2465,
    "81x": 2466,
    "veN": 2467,
    "m,q,n": 2468,
    "[X]": 2469,
    "par": 2470,
    "vn": 2471,
    "ESR": 2472,
    "nN": 2473,
    "nRT": 2474,
    "1>n": 2475,
    "2,j": 2476,
    "A>0": 2477,
    "3F": 2478,
    "vd": 2479,
    "free": 2480,
    "PE": 2481,
    "x,r": 2482,
    ">R": 2483,
    "dH": 2484,
    "\\mu|": 2485,
    "aSb": 2486,
    "a\\pm": 2487,
    "a\\div": 2488,
    "c\\pm": 2489,
    "ea,0": 2490,
    "0y": 2491,
    "x,y,": 2492,
    "RCs": 2493,
    "Sin": 2494,
    "L,R": 2495,
    "bnum[r]": 2496,
    "Y,d": 2497,
    "5L": 2498,
    "Lt": 2499,
    "8196": 2500,
    "x,v,t": 2501,
    "555": 2502,
    "pi": 2503,
    "xc": 2504,
    "SC": 2505,
    "year": 2506,
    "\\mu,": 2507,
    "n1": 2508,
    "cT": 2509,
    "R,": 2510,
    "Vol": 2511,
    "729": 2512,
    "1,r": 2513,
    "dF\\left": 2514,
    "T,V,N": 2515,
    "SdT": 2516,
    "pdV": 2517,
    "2n\\pi": 2518,
    "iax": 2519,
    "15d": 2520,
    "x[n": 2521,
    "bv": 2522,
    "|q|": 2523,
    "hu": 2524,
    "hg": 2525,
    "Cos": 2526,
    "NA": 2527,
    "n\\sin": 2528,
    "HH": 2529,
    "AE": 2530,
    "k2": 2531,
    "32x": 2532,
    "9R": 2533,
    "RX": 2534,
    "exp\\left": 2535,
    "dim": 2536,
    "0.38": 2537,
    "MN": 2538,
    "R,\\theta": 2539,
    "G,T": 2540,
    "j\\pi": 2541,
    "4X": 2542,
    "w\\neq": 2543,
    "rest": 2544,
    "283": 2545,
    "204": 2546,
    "dk": 2547,
    "k,j": 2548,
    "ir": 2549,
    "ph": 2550,
    "surr": 2551,
    "fgh": 2552,
    "0,y": 2553,
    "As": 2554,
    "||y": 2555,
    "x||": 2556,
    "h|": 2557,
    "n,l,m": 2558,
    "5.9": 2559,
    "|a|,|b|": 2560,
    "0.0001": 2561,
    "r0": 2562,
    "0.15": 2563,
    "ua": 2564,
    ">3": 2565,
    ".e": 2566,
    ",...,f": 2567,
    "a\\Delta": 2568,
    "n\\in": 2569,
    "t,t": 2570,
    "1>": 2571,
    "1>0": 2572,
    "4GM": 2573,
    "B,": 2574,
    "k\\pm": 2575,
    "1.00": 2576,
    "6.28": 2577,
    "23.306": 2578,
    "0.693": 2579,
    "x,\\Delta": 2580,
    "1,0,0,": 2581,
    "long": 2582,
    "GS4": 2583,
    "89": 2584,
    "x,q": 2585,
    "2bx": 2586,
    "[p": 2587,
    "s\\in": 2588,
    "2xd": 2589,
    ",...,P": 2590,
    "155": 2591,
    "0.93": 2592,
    "End": 2593,
    "tanh": 2594,
    "A,": 2595,
    "b\\sin": 2596,
    "str": 2597,
    "|X|": 2598,
    "4\\right": 2599,
    "PCER": 2600,
    "2,q": 2601,
    "[h,e]": 2602,
    "ct,x,y,z": 2603,
    "0.73": 2604,
    "0.27": 2605,
    "w\\right": 2606,
    ",...,S": 2607,
    "2ex": 2608,
    "fxy": 2609,
    "gy": 2610,
    "m2": 2611,
    "\\infty,\\infty": 2612,
    "112": 2613,
    "\\left|F": 2614,
    "0.05": 2615,
    "it\\mu": 2616,
    "\\sigma[\\pi": 2617,
    "232": 2618,
    "II": 2619,
    "9m": 2620,
    "30m": 2621,
    "t\\sigma": 2622,
    "2AB": 2623,
    "hash": 2624,
    "|x||y|": 2625,
    "0,3": 2626,
    "\\pi,A": 2627,
    "u\\phi": 2628,
    "fb": 2629,
    "r,m": 2630,
    "skid": 2631,
    "a,b,c\\right\\": 2632,
    "vac": 2633,
    "mq": 2634,
    "hx": 2635,
    "m\\cos": 2636,
    "iT": 2637,
    "1.602": 2638,
    "2At": 2639,
    "Bt": 2640,
    "BPA": 2641,
    "t\\sin": 2642,
    "x,d": 2643,
    "629": 2644,
    "pj": 2645,
    "\\theta,": 2646,
    "LB": 2647,
    "abdc": 2648,
    "6z": 2649,
    "XC": 2650,
    "RM": 2651,
    "t,n": 2652,
    "Stab": 2653,
    "|S||T|": 2654,
    "i]": 2655,
    "322": 2656,
    "900": 2657,
    "A\\neq": 2658,
    "p>2": 2659,
    "[d": 2660,
    "pre": 2661,
    "4\\pi\\left": 2662,
    "r,z": 2663,
    "[H]": 2664,
    "6.46": 2665,
    "ub": 2666,
    "R[f": 2667,
    "[5]": 2668,
    "phi": 2669,
    "\\left[0,1\\right]": 2670,
    ">w": 2671,
    "u\\mathrm": 2672,
    "B,B": 2673,
    "Rec": 2674,
    "3f": 2675,
    "PL": 2676,
    "|u|": 2677,
    "a,b,c": 2678,
    "BV": 2679,
    "Sun": 2680,
    "[k]b": 2681,
    "2\\left": 2682,
    "r\\pi": 2683,
    "0,11": 2684,
    "1,000": 2685,
    "bit": 2686,
    "5,2": 2687,
    "spin": 2688,
    "\\infty,c": 2689,
    "\\left|A": 2690,
    "w,b": 2691,
    "Rot": 2692,
    ">\\sigma": 2693,
    "a,b,x": 2694,
    "f,x": 2695,
    "224": 2696,
    "744": 2697,
    "945": 2698,
    "z0": 2699,
    "\\log\\sigma": 2700,
    "e[n]": 2701,
    "2bxy": 2702,
    "nc": 2703,
    "[L": 2704,
    "0m": 2705,
    "fR": 2706,
    "cdf": 2707,
    "x\\in[": 2708,
    "a,a]": 2709,
    "FR": 2710,
    "RPM": 2711,
    "CL": 2712,
    "CCI": 2713,
    "[0]": 2714,
    "0.04m": 2715,
    "p,r": 2716,
    "0.3": 2717,
    "0.866": 2718,
    "rN": 2719,
    "\\theta\\theta": 2720,
    "T\\": 2721,
    "k,d": 2722,
    "7.1": 2723,
    ".y": 2724,
    "32\\pi": 2725,
    "t\\neq": 2726,
    "te": 2727,
    "\\mu\\cos": 2728,
    "X1": 2729,
    "X2": 2730,
    "v,t": 2731,
    "sig": 2732,
    "kdt": 2733,
    "r\\in": 2734,
    "j>|u|": 2735,
    "\\cos\\theta\\pm": 2736,
    "\\left|y[n]\\right|": 2737,
    "h[n": 2738,
    "7m": 2739,
    "ncp": 2740,
    "0.23": 2741,
    "2nx": 2742,
    "i,j,v": 2743,
    "|w|": 2744,
    "2m\\left|E\\right|": 2745,
    "TSI": 2746,
    ",r,s": 2747,
    "EMA": 2748,
    "v2": 2749,
    "xA": 2750,
    "109.2": 2751,
    "100.0": 2752,
    "38.9": 2753,
    "0.4402": 2754,
    "G1": 2755,
    ">E": 2756,
    "AF": 2757,
    "Ann": 2758,
    "\\left|q": 2759,
    "p\\right|": 2760,
    "x,c": 2761,
    "58": 2762,
    "39": 2763,
    "n,j": 2764,
    "u,v\\": 2765,
    "i,\\pm": 2766,
    "k,": 2767,
    "j\\pm": 2768,
    ">g": 2769,
    "Sv": 2770,
    "36x": 2771,
    "30x": 2772,
    "0,n": 2773,
    "0,i": 2774,
    "ms": 2775,
    "zx": 2776,
    "4MG": 2777,
    "arg": 2778,
    "x,a": 2779,
    "qn": 2780,
    "B>1": 2781,
    "T[h": 2782,
    "x,u,u": 2783,
    "y[n]": 2784,
    "y[n": 2785,
    "c[n]": 2786,
    "tv": 2787,
    "Te": 2788,
    "1200": 2789,
    "rf": 2790,
    "0.0867": 2791,
    "dis": 2792,
    "98": 2793,
    "HG": 2794,
    "AT": 2795,
    "l\\pi": 2796,
    "sk": 2797,
    "1110": 2798,
    "G,q,g": 2799,
    "ACB": 2800,
    ",...,G": 2801,
    "[12.3,7.6]": 2802,
    "[0,2.404]": 2803,
    "V[x": 2804,
    "]x": 2805,
    "iw": 2806,
    "jw": 2807,
    "\\left|a": 2808,
    "p\\right": 2809,
    "|v|": 2810,
    ",\\pm": 2811,
    "k\\Delta": 2812,
    ",p\\": 2813,
    "mb": 2814,
    "Ex": 2815,
    "61b": 2816,
    "92": 2817,
    "\\left[\\mathrm": 2818,
    "Bi": 2819,
    "u\\pm": 2820,
    "Sx": 2821,
    "br": 2822,
    "5s": 2823,
    "R,S": 2824,
    "A0": 2825,
    "m]": 2826,
    "P,L,I": 2827,
    "5,5": 2828,
    "ee": 2829,
    "SR": 2830,
    "\\left|S\\right|": 2831,
    "257": 2832,
    "22n": 2833,
    "qS": 2834,
    "|N|": 2835,
    "24\\pi": 2836,
    "NI": 2837,
    "gap": 2838,
    "Ass": 2839,
    "EI": 2840,
    "L\\phi": 2841,
    "11f": 2842,
    "Ht": 2843,
    "E,E": 2844,
    "fc": 2845,
    "nV": 2846,
    "[C]": 2847,
    "4,5": 2848,
    "z\\log": 2849,
    "b,b": 2850,
    "T,L": 2851,
    ">4": 2852,
    "1,0,0,0": 2853,
    "I,I": 2854,
    "tb": 2855,
    "pd\\sigma": 2856,
    "pd\\pi": 2857,
    "p,T": 2858,
    "move": 2859,
    "27x": 2860,
    "38x": 2861,
    "Sf": 2862,
    "\\in\\left": 2863,
    "0,1\\right": 2864,
    "dG\\left": 2865,
    "adj": 2866,
    "wq": 2867,
    "VdP": 2868,
    "[z": 2869,
    "NBR": 2870,
    "b>a": 2871,
    "1.36": 2872,
    "[M": 2873,
    "t,0": 2874,
    ",sid": 2875,
    "TR": 2876,
    "BE": 2877,
    "3s": 2878,
    "vh": 2879,
    "Bh": 2880,
    "gk": 2881,
    "Ah": 2882,
    "GF\\left": 2883,
    "exh": 2884,
    "||y||": 2885,
    "Spin": 2886,
    "Cv": 2887,
    "HA": 2888,
    "xB": 2889,
    "6000": 2890,
    "4\\log": 2891,
    "mode": 2892,
    "d,ave": 2893,
    "MRTS": 2894,
    "\\theta\\in": 2895,
    "0,\\infty": 2896,
    "G,C": 2897,
    "LS": 2898,
    "t.i": 2899,
    "776": 2900,
    "4,4": 2901,
    "loc": 2902,
    "\\Delta\\mu": 2903,
    "B[i]": 2904,
    "yxyx": 2905,
    "tc": 2906,
    "23,2": 2907,
    "x>": 2908,
    "AM": 2909,
    "uR": 2910,
    "350": 2911,
    "wb": 2912,
    "x1": 2913,
    "x2": 2914,
    "6y": 2915,
    "12y": 2916,
    "acdb": 2917,
    "adbc": 2918,
    "k[[t": 2919,
    "]]": 2920,
    "[l]": 2921,
    "[l": 2922,
    "\\pi,B": 2923,
    "w,u": 2924,
    "pr": 2925,
    "0,ij": 2926,
    "1c": 2927,
    "t,V": 2928,
    "2051": 2929,
    "4A": 2930,
    "r\\cos\\left": 2931,
    "wx": 2932,
    "Ap": 2933,
    "pm": 2934,
    "jb": 2935,
    "j|": 2936,
    "[1,": 2937,
    ",1]": 2938,
    "vx": 2939,
    "l,m": 2940,
    "5k": 2941,
    "xxxx": 2942,
    "c\\left": 2943,
    "u,": 2944,
    "lx": 2945,
    "d[X": 2946,
    "3\\log": 2947,
    "Nb": 2948,
    "a,k": 2949,
    "1B": 2950,
    "1C1": 2951,
    "C1": 2952,
    "161": 2953,
    "cY": 2954,
    "3V": 2955,
    "166": 2956,
    "m1,m2,k": 2957,
    "a,2a,3a,": 2958,
    "273.15": 2959,
    ">\\left": 2960,
    "imp": 2961,
    "2A|": 2962,
    "2|A|": 2963,
    "AFR": 2964,
    "X,a": 2965,
    "p\\in\\": 2966,
    "E,": 2967,
    "aT": 2968,
    "b\\in": 2969,
    "m,P": 2970,
    "\\left|Y\\right|": 2971,
    "Ha": 2972,
    "phys": 2973,
    "0,4": 2974,
    "4d": 2975,
    "2.405": 2976,
    "v,v": 2977,
    "177\\pm": 2978,
    "yo": 2979,
    "2M": 2980,
    "120f": 2981,
    "1ex": 2982,
    "|T|": 2983,
    "[0,": 2984,
    "360": 2985,
    "235": 2986,
    "term": 2987,
    "0.2126R": 2988,
    "0.7152G": 2989,
    "0.0722B": 2990,
    "j,1": 2991,
    "kA": 2992,
    "val": 2993,
    "16d": 2994,
    "8d": 2995,
    "0,u": 2996,
    "c,a": 2997,
    "9N": 2998,
    "409": 2999,
    ",\\Delta": 3000,
    "1z": 3001,
    "tI": 3002,
    "pv": 3003,
    "s2": 3004,
    "se": 3005,
    "d,a,n": 3006,
    "2ad": 3007,
    "sl,v": 3008,
    "[F]": 3009,
    "0ij": 3010,
    "[t]": 3011,
    "0.995": 3012,
    "z,z": 3013,
    "x\\right\\": 3014,
    "aff": 3015,
    "0.12": 3016,
    "[S": 3017,
    "|u": 3018,
    "Aut": 3019,
    "kar": 3020,
    "Pbx": 3021,
    "3abc": 3022,
    "2Gm": 3023,
    "cov": 3024,
    "wz": 3025,
    "F,G\\": 3026,
    "gate8": 3027,
    "5.7": 3028,
    "mmm": 3029,
    "nom": 3030,
    "5c": 3031,
    "12q": 3032,
    "Tr": 3033,
    "XP": 3034,
    "0,t": 3035,
    "kz\\right": 3036,
    "exc": 3037,
    ",...,l": 3038,
    "1,0,": 3039,
    "aw": 3040,
    "250,000": 3041,
    "ext": 3042,
    "Ni": 3043,
    "77": 3044,
    "b,A": 3045,
    "pL": 3046,
    "Be": 3047,
    "1,...,n\\": 3048,
    "SS": 3049,
    "xf": 3050,
    "axy": 3051,
    "jh": 3052,
    "5t": 3053,
    "Tx": 3054,
    "a,b,n": 3055,
    "220": 3056,
    "0.22": 3057,
    "n0": 3058,
    "kF": 3059,
    "ng": 3060,
    "Ab": 3061,
    "v\\cos\\theta": 3062,
    "v\\sin\\theta": 3063,
    "\\left|p\\right|": 3064,
    "P.MPL": 3065,
    "E[u": 3066,
    "919": 3067,
    "k[\\mathrm": 3068,
    "8L": 3069,
    "X,p": 3070,
    "acb": 3071,
    "y\\sin": 3072,
    "Nk": 3073,
    "bk": 3074,
    "0,\\pm": 3075,
    "i,a": 3076,
    "E[": 3077,
    "HB": 3078,
    "\\phi,\\theta": 3079,
    "||A": 3080,
    "B||": 3081,
    "t,q": 3082,
    "1I": 3083,
    "0z": 3084,
    "0.95": 3085,
    "|f|": 3086,
    "G\\right": 3087,
    "Ay": 3088,
    "G,x": 3089,
    "i\\in": 3090,
    "3.14": 3091,
    "|c|": 3092,
    "79": 3093,
    "c2": 3094,
    "v,x": 3095,
    "4v": 3096,
    "|Y": 3097,
    "5,s": 3098,
    "1,x": 3099,
    "23,41": 3100,
    "0.253": 3101,
    "N,V,T": 3102,
    "Fx": 3103,
    "2.56": 3104,
    "1.715": 3105,
    "16a": 3106,
    "25n": 3107,
    "13n": 3108,
    "73n": 3109,
    "||\\mu": 3110,
    "|\\mu|": 3111,
    "sinh": 3112,
    "253": 3113,
    ",xy": 3114,
    "LSB": 3115,
    "PT": 3116,
    "y1": 3117,
    "000": 3118,
    "n,x": 3119,
    "r,g,b": 3120,
    "4pq": 3121,
    "xG": 3122,
    "xI": 3123,
    "P,V": 3124,
    "0,0,1": 3125,
    "f,g\\": 3126,
    "L\\right": 3127,
    "4R": 3128,
    "g,2": 3129,
    "PX": 3130,
    "real": 3131,
    "i,p": 3132,
    "Aq": 3133,
    ",...,q": 3134,
    "xyz": 3135,
    "a,0": 3136,
    "Mg": 3137,
    "Sr": 3138,
    "bV": 3139,
    "[8]": 3140,
    "c\\in": 3141,
    "4\\sigma": 3142,
    "[C": 3143,
    "1.4000": 3144,
    "BG": 3145,
    "t,r,\\theta,\\phi": 3146,
    "b|": 3147,
    "iC": 3148,
    "a\\sin\\theta": 3149,
    ",m\\": 3150,
    "s,u": 3151,
    "x,t,\\theta": 3152,
    "x,\\theta": 3153,
    "t\\in": 3154,
    "j\\theta": 3155,
    "265": 3156,
    "qL": 3157,
    "MI": 3158,
    "r,c": 3159,
    "Px": 3160,
    "y,t": 3161,
    "[80": 3162,
    "89]": 3163,
    "d]r": 3164,
    "2d]r": 3165,
    "4N": 3166,
    "\\sin\\left[": 3167,
    "dt\\right]dt": 3168,
    "v\\tan": 3169,
    "221": 3170,
    "dx\\right]dx": 3171,
    "T,p": 3172,
    "2i\\pi": 3173,
    "n[k]": 3174,
    "x,y,p": 3175,
    "lb": 3176,
    "s0": 3177,
    "q,p": 3178,
    "4P": 3179,
    "1.000": 3180,
    "Head": 3181,
    "jt": 3182,
    "x\\Delta": 3183,
    "[a]": 3184,
    "z\\in": 3185,
    "ef": 3186,
    "rem": 3187,
    "5,3": 3188,
    "\\sigma\\right": 3189,
    "q,r": 3190,
    "3\\sigma": 3191,
    "k,s": 3192,
    "PN": 3193,
    "|\\phi": 3194,
    "mg\\left": 3195,
    "y,": 3196,
    "qA": 3197,
    "]g": 3198,
    "||N||": 3199,
    "N,T,M,S": 3200,
    "kw": 3201,
    "yi": 3202,
    "M,S": 3203,
    "yp": 3204,
    "11x": 3205,
    "HETP": 3206,
    "x,N": 3207,
    "u,z": 3208,
    "TY": 3209,
    "[A,C]": 3210,
    "C\\log": 3211,
    "xb": 3212,
    "6.7": 3213,
    "4B": 3214,
    "297": 3215,
    "mp": 3216,
    "FB": 3217,
    "n,d,w": 3218,
    "E[p]": 3219,
    "blue": 3220,
    "r\\cos\\phi": 3221,
    "d\\sin": 3222,
    "1.7": 3223,
    "||a": 3224,
    "A\\cos": 3225,
    "1600": 3226,
    "Min": 3227,
    "d\\neq": 3228,
    "Xdx": 3229,
    "f|": 3230,
    "APC": 3231,
    "ts": 3232,
    "ug": 3233,
    "p,n": 3234,
    "re": 3235,
    "GM\\left": 3236,
    "FF": 3237,
    "0,l": 3238,
    "\\mu\\sin": 3239,
    "Pl": 3240,
    "5.3": 3241,
    "bey": 3242,
    "CP": 3243,
    "0.98x": 3244,
    "0,1,": 3245,
    "Hp": 3246,
    "PAP": 3247,
    "c|": 3248,
    "d\\": 3249,
    "[\\pi": 3250,
    "x,y,u,v": 3251,
    "2Rr": 3252,
    "v\\Delta": 3253,
    "a,n": 3254,
    "R\\cos": 3255,
    "bm": 3256,
    "3xy": 3257,
    "w,w": 3258,
    "l>g": 3259,
    "0.0078": 3260,
    ">m": 3261,
    "C\\left": 3262,
    "PFB": 3263,
    ",...,w": 3264,
    "6561": 3265,
    "z,1": 3266,
    "ant": 3267,
    "[0,2\\pi]": 3268,
    "i,c": 3269,
    "||u||": 3270,
    "|I|": 3271,
    "tu": 3272,
    "|R|": 3273,
    "x,u": 3274,
    "Mc": 3275,
    "x,y\\": 3276,
    "cg": 3277,
    "qm": 3278,
    "25x": 3279,
    "B\\in": 3280,
    "T,i": 3281,
    "NkT": 3282,
    "86": 3283,
    "T2": 3284,
    "s,o": 3285,
    "l,": 3286,
    "\\pi,2\\pi": 3287,
    "E[f]": 3288,
    "hold": 3289,
    "R[t": 3290,
    "30.48": 3291,
    "n\\left": 3292,
    "Bn": 3293,
    "a,b\\right\\": 3294,
    ",\\left\\": 3295,
    ",\\left": 3296,
    "b,1\\right": 3297,
    "Stk": 3298,
    "j\\neq": 3299,
    "qi": 3300,
    "PSL": 3301,
    "Res": 3302,
    "8t": 3303,
    "R,t": 3304,
    "[E]": 3305,
    "|AB|": 3306,
    "os": 3307,
    "\\mu\\sigma": 3308,
    "1s": 3309,
    "14mod12": 3310,
    "LR": 3311,
    "l,k": 3312,
    "e3": 3313,
    "EXB": 3314,
    "x,y,z,w": 3315,
    "k[": 3316,
    "aS": 3317,
    "y\\cos": 3318,
    "3\\phi": 3319,
    "100x": 3320,
    "r\\Delta": 3321,
    "GV": 3322,
    "rms": 3323,
    "B\\sin": 3324,
    "1320": 3325,
    "1010": 3326,
    "path": 3327,
    "7a": 3328,
    "xlog": 3329,
    "9.7": 3330,
    "8.0": 3331,
    "ST": 3332,
    "rP": 3333,
    "r\\cos\\theta": 3334,
    "Im": 3335,
    "3500": 3336,
    "0.02x": 3337,
    "kP": 3338,
    "1,A": 3339,
    "T\\mathrm": 3340,
    "VI": 3341,
    "TH": 3342,
    "cold": 3343,
    "r\\cos\\Delta": 3344,
    "1.0004": 3345,
    "A,i,j": 3346,
    "q,t": 3347,
    "1.3816": 3348,
    "1729": 3349,
    "H,T\\": 3350,
    "Rl": 3351,
    "x,G": 3352,
    ",\\mathrm": 3353,
    "288.15": 3354,
    "cn": 3355,
    "rm": 3356,
    "pav": 3357,
    "\\left[1,": 3358,
    "Cq": 3359,
    "q>p": 3360,
    "hX": 3361,
    "E[e": 3362,
    "v\\neq": 3363,
    "remP": 3364,
    "V\\in": 3365,
    "[k]": 3366,
    "mob": 3367,
    "||C": 3368,
    "5252": 3369,
    ",op": 3370,
    "i\\sin\\left": 3371,
    "Eq.4": 3372,
    "450": 3373,
    "NAV": 3374,
    "312": 3375,
    "2,000,000": 3376,
    ",dx": 3377,
    "tg": 3378,
    "abs": 3379,
    "N,s": 3380,
    "nt": 3381,
    "|i|": 3382,
    "0es": 3383,
    "0.63": 3384,
    "10,000,000,000": 3385,
    "td": 3386,
    "4\\pm": 3387,
    "hm": 3388,
    "iii": 3389,
    "line": 3390,
    "Lii": 3391,
    "NL": 3392,
    "|P|": 3393,
    "4.2": 3394,
    "5.5": 3395,
    "ep": 3396,
    "fuel": 3397,
    "AdS": 3398,
    "\\left|C\\right|": 3399,
    "CPP": 3400,
    "CVR": 3401,
    "407": 3402,
    "x\\log": 3403,
    "p]": 3404,
    "u,x,y": 3405,
    ",T,N": 3406,
    "[I": 3407,
    "FGT": 3408,
    "uc": 3409,
    "can": 3410,
    "700": 3411,
    "7f": 3412,
    "32f": 3413,
    "12f": 3414,
    "Mx": 3415,
    "nhf": 3416,
    "md": 3417,
    "[A]": 3418,
    "[HA]": 3419,
    "row": 3420,
    "sC": 3421,
    "n[H]": 3422,
    "ti": 3423,
    ".x": 3424,
    "0,R": 3425,
    "0.299R": 3426,
    "0.587G": 3427,
    "0.114B": 3428,
    "3,t": 3429,
    "||w||": 3430,
    "|1": 3431,
    "GB": 3432,
    "NB": 3433,
    "|w": 3434,
    "0.f": 3435,
    "1.f": 3436,
    "3.f": 3437,
    "Vd": 3438,
    "j2": 3439,
    "jl": 3440,
    "V,A": 3441,
    "d\\pi": 3442,
    "2I": 3443,
    "NaN": 3444,
    "ll": 3445,
    "|\\Delta": 3446,
    "L2": 3447,
    "w\\in": 3448,
    ">P": 3449,
    "P1,P2": 3450,
    "s\\mathrm": 3451,
    "kin": 3452,
    "yt": 3453,
    "m,0": 3454,
    "fl": 3455,
    ">t": 3456,
    "3e": 3457,
    "fu": 3458,
    "n|": 3459,
    "R[M]": 3460,
    "s\\infty": 3461,
    "PPV": 3462,
    ",...,c": 3463,
    "n,10": 3464,
    "650": 3465,
    "255": 3466,
    "aA": 3467,
    "bB": 3468,
    "t,u": 3469,
    "uq": 3470,
    "|b|": 3471,
    "|h|": 3472,
    "k,l": 3473,
    "2bc\\cos": 3474,
    "\\left[T": 3475,
    "|3|": 3476,
    "|1|": 3477,
    "|2|": 3478,
    "8.1": 3479,
    "pn": 3480,
    "PP": 3481,
    "Itd": 3482,
    "EL": 3483,
    "x,xy": 3484,
    "mV": 3485,
    "w\\left": 3486,
    "3,4,5": 3487,
    "2f\\sin": 3488,
    "x,t\\right": 3489,
    "r,": 3490,
    "k,n,r,\\theta": 3491,
    "14m": 3492,
    "0\\div": 3493,
    "V\\right": 3494,
    "4.8": 3495,
    "3.7": 3496,
    "heel": 3497,
    "s\\left": 3498,
    "MPL": 3499,
    "2,p": 3500,
    "end": 3501,
    "MP": 3502,
    ">F": 3503,
    "pI": 3504,
    "t[a": 3505,
    "Pz": 3506,
    "e[n": 3507,
    "bH": 3508,
    "d[ES]": 3509,
    "hub": 3510,
    "x,w\\right": 3511,
    "Y\\right": 3512,
    "199": 3513,
    "x>x": 3514,
    "av": 3515,
    "n>j": 3516,
    "FV": 3517,
    "L|x": 3518,
    "L,R\\": 3519,
    "7225": 3520,
    "x[k]": 3521,
    "Md": 3522,
    "0.87": 3523,
    "z,y": 3524,
    "orb": 3525,
    "3B": 3526,
    "TP": 3527,
    "A\\sin": 3528,
    "vdx": 3529,
    "CR": 3530,
    ",M,Re,P": 3531,
    "conf": 3532,
    "logn": 3533,
    ",...,V": 3534,
    "3l": 3535,
    "4m": 3536,
    "SSE": 3537,
    "2\\pi\\sigma": 3538,
    "[h,f]": 3539,
    "RH": 3540,
    "rY": 3541,
    "1q": 3542,
    "[n,k]": 3543,
    "bcs": 3544,
    "ja": 3545,
    "E\\left[|e": 3546,
    "m1": 3547,
    "||R": 3548,
    "[p]": 3549,
    "t\\left": 3550,
    "[v]": 3551,
    "x,y\\in": 3552,
    "210x": 3553,
    "3675": 3554,
    "for": 3555,
    "m>0": 3556,
    "VX": 3557,
    "i,l": 3558,
    "T\\in": 3559,
    "612": 3560,
    "\\neq\\pm": 3561,
    "[2": 3562,
    "a,b\\right": 3563,
    "sb": 3564,
    "...........": 3565,
    "6p": 3566,
    "[\\mathrm": 3567,
    "3.3": 3568,
    "G,": 3569,
    "12,6,": 3570,
    "\\left|R\\right|": 3571,
    ",\\sin": 3572,
    "h\\right": 3573,
    "BAC": 3574,
    "Rb": 3575,
    "LF": 3576,
    "[\\phi[f],\\phi[g]]": 3577,
    "378": 3578,
    "115": 3579,
    ",...,F": 3580,
    "4L": 3581,
    "r\\": 3582,
    "3z": 3583,
    "bd\\phi": 3584,
    "2a\\sin": 3585,
    "3w": 3586,
    "b,d": 3587,
    "2pq": 3588,
    "Af": 3589,
    "3M": 3590,
    "1.20]": 3591,
    "T,V,\\": 3592,
    "Ytd": 3593,
    ",0,0": 3594,
    "0,a": 3595,
    "1],": 3596,
    "hL": 3597,
    "a\\mu": 3598,
    "off": 3599,
    "q\\neq": 3600,
    "LX": 3601,
    "M[f": 3602,
    "M[f]": 3603,
    "2ay": 3604,
    "r[k]": 3605,
    "h[n]s[k": 3606,
    "n]": 3607,
    "b]": 3608,
    "p\\mu": 3609,
    "Rt\\cos": 3610,
    "b\\neq": 3611,
    "a,t": 3612,
    "a,z\\right": 3613,
    "c,x\\right": 3614,
    "i,Y": 3615,
    "y>x": 3616,
    "],[": 3617,
    "[B]": 3618,
    "n,r": 3619,
    "rn": 3620,
    "3GM": 3621,
    "xv": 3622,
    "T,c": 3623,
    "5.57": 3624,
    ",T\\": 3625,
    "a,b,c,": 3626,
    "runs": 3627,
    "ESL": 3628,
    "expr": 3629,
    "bX": 3630,
    "[AB,C]": 3631,
    "A\\": 3632,
    "n,a": 3633,
    "p,t": 3634,
    ".T": 3635,
    "CNR": 3636,
    "mz": 3637,
    "i\\infty": 3638,
    "aR": 3639,
    "3000": 3640,
    "288": 3641,
    "1.62": 3642,
    "5Lx": 3643,
    "E\\left\\": 3644,
    "|C|": 3645,
    "t,x,y": 3646,
    ",0,1": 3647,
    "EMV": 3648,
    "BMV": 3649,
    "fRep": 3650,
    "[a,y]": 3651,
    "T[i]": 3652,
    "y,\\phi": 3653,
    "[G,G]": 3654,
    "B1": 3655,
    "B2": 3656,
    "mod": 3657,
    "26": 3658,
    "B[A,C]": 3659,
    "Cc": 3660,
    "||S": 3661,
    "BET": 3662,
    "2mn": 3663,
    "ia": 3664,
    "Tn": 3665,
    "4,q": 3666,
    "0,1,0": 3667,
    "d,q": 3668,
    "e1": 3669,
    "bA": 3670,
    "2T\\left": 3671,
    "hv": 3672,
    "[A,B]": 3673,
    "aE": 3674,
    ">I": 3675,
    "[f,g]": 3676,
    "v|t|": 3677,
    "],L": 3678,
    "]1": 3679,
    "i,x": 3680,
    "ka": 3681,
    "k[y": 3682,
    "l,r": 3683,
    "St": 3684,
    "e0": 3685,
    "BM": 3686,
    "TA": 3687,
    "[\\sigma]": 3688,
    "1444": 3689,
    "1.43": 3690,
    ">k": 3691,
    "|H|": 3692,
    "G,G": 3693,
    "h,i": 3694,
    "c,i": 3695,
    "TN": 3696,
    "5\\left[\\left": 3697,
    "gen": 3698,
    "FN": 3699,
    "|x[n]|": 3700,
    "r,mono": 3701,
    "0,1,2,...\\": 3702,
    "app": 3703,
    "EM": 3704,
    "28x": 3705,
    "4M": 3706,
    "78": 3707,
    "npq": 3708,
    "131": 3709,
    "k,y": 3710,
    "2\\pi\\left": 3711,
    "rim": 3712,
    "b\\cos\\theta": 3713,
    "c\\sin\\theta": 3714,
    "x,a,b": 3715,
    "n,k,l": 3716,
    "\\mu\\in": 3717,
    "t>0": 3718,
    "1,100": 3719,
    "po": 3720,
    "c>": 3721,
    "27g": 3722,
    "7000": 3723,
    "No": 3724,
    "4\\pi\\mu": 3725,
    "jkx": 3726,
    "erf": 3727,
    "down": 3728,
    "jam": 3729,
    "a\\pi": 3730,
    "a,z": 3731,
    "rV": 3732,
    "1.69": 3733,
    "0.09": 3734,
    "fp": 3735,
    "\\theta,r": 3736,
    "|ax": 3737,
    "n\\pm": 3738,
    "0]": 3739,
    "cdt": 3740,
    "A[t": 3741,
    "x]": 3742,
    "[u,v,w]": 3743,
    "315": 3744,
    "pu": 3745,
    "fus": 3746,
    "0.5878": 3747,
    "Lh": 3748,
    "2>": 3749,
    "fL": 3750,
    "2,2,": 3751,
    "z|": 3752,
    "0.26": 3753,
    "f,g,h": 3754,
    "N\\Delta": 3755,
    "3,opt": 3756,
    "v,i": 3757,
    "f,b": 3758,
    "mX": 3759,
    "\\left[p": 3760,
    "0.42": 3761,
    "4G": 3762,
    "up": 3763,
    "[[G": 3764,
    "|H": 3765,
    "rrc": 3766,
    "137": 3767,
    "z[k]": 3768,
    "v[k]g[0]": 3769,
    "Nx": 3770,
    "auth": 3771,
    "r\\neq": 3772,
    ",0\\right": 3773,
    "HBP": 3774,
    "SH": 3775,
    "FL\\sin\\theta": 3776,
    "8192": 3777,
    "\\pm\\cos": 3778,
    "CAS": 3779,
    "...B": 3780,
    "2||x||": 3781,
    "d0": 3782,
    "M,d": 3783,
    "G>0": 3784,
    "\\sigma\\sigma": 3785,
    "k|": 3786,
    "t>t": 3787,
    "e,": 3788,
    "3A": 3789,
    "[\\log": 3790,
    ",\\log": 3791,
    ",...\\": 3792,
    "Eq.3": 3793,
    "sup": 3794,
    "sub": 3795,
    "NE": 3796,
    "N,M": 3797,
    "S,V,\\": 3798,
    "EC": 3799,
    "3u": 3800,
    "E\\neq": 3801,
    ",xp": 3802,
    "g,e": 3803,
    "\\left[n": 3804,
    "x,M": 3805,
    "v,h": 3806,
    "1\\neq": 3807,
    "2n,F": 3808,
    "1,y\\pm": 3809,
    "1,z\\pm": 3810,
    "r,1": 3811,
    "||e": 3812,
    "BE3": 3813,
    "m3": 3814,
    "lkm": 3815,
    "4,": 3816,
    "Sph": 3817,
    "Ve": 3818,
    "||c": 3819,
    "apk": 3820,
    "Rr": 3821,
    "A[i,j]": 3822,
    "A[i": 3823,
    "|P": 3824,
    "001": 3825,
    "8G": 3826,
    "xr": 3827,
    "p2": 3828,
    "4.001": 3829,
    "I>0": 3830,
    "qh": 3831,
    "70x": 3832,
    "x,\\mu": 3833,
    "t,p": 3834,
    "\\theta\\cos": 3835,
    "CX": 3836,
    "ENC": 3837,
    "nkT": 3838,
    "a>a": 3839,
    "as": 3840,
    "u,e": 3841,
    "Pa": 3842,
    "m,m": 3843,
    "3m": 3844,
    "G|": 3845,
    "Attr": 3846,
    "iY]": 3847,
    "aM": 3848,
    "5I": 3849,
    "S\\": 3850,
    "e,t": 3851,
    "G]": 3852,
    "H1": 3853,
    "[ax": 3854,
    "hxy": 3855,
    "CB": 3856,
    "F,n": 3857,
    "6.2": 3858,
    "245": 3859,
    "46": 3860,
    "w]": 3861,
    "Ra": 3862,
    "b,": 3863,
    "CHSH": 3864,
    "y2": 3865,
    "n\\log\\log": 3866,
    "n,k,d": 3867,
    "Hu": 3868,
    "n,q": 3869,
    "y>0": 3870,
    "v>v": 3871,
    "[x,y,z]": 3872,
    "[0,x]": 3873,
    "qI": 3874,
    "x\\neq": 3875,
    "1\\div": 3876,
    "cu": 3877,
    "1.1": 3878,
    "||T": 3879,
    ",B,B": 3880,
    "Xdt": 3881,
    "\\sin\\theta,\\sin": 3882,
    "\\mu,\\sigma,": 3883,
    "[c]": 3884,
    "020": 3885,
    ".w": 3886,
    "\\left|G\\right|": 3887,
    "\\left|S": 3888,
    "z\\": 3889,
    "Fp": 3890,
    "415": 3891,
    "3.73": 3892,
    "r\\sin\\theta\\cos\\phi": 3893,
    ",...,h": 3894,
    "\\left[n\\right]": 3895,
    "VP": 3896,
    "g,f": 3897,
    "modn": 3898,
    "|\\mathrm": 3899,
    "432": 3900,
    "ABA": 3901,
    "0,T": 3902,
    "|l|": 3903,
    "7.7": 3904,
    "4.0": 3905,
    "cj": 3906,
    "gl": 3907,
    "rb": 3908,
    "pt": 3909,
    "sing": 3910,
    "2\\pm": 3911,
    "Lclm": 3912,
    "2\\pi\\theta": 3913,
    "||d\\phi||": 3914,
    "62": 3915,
    "vm": 3916,
    "n,F": 3917,
    "s,\\pi": 3918,
    "15t": 3919,
    "ku": 3920,
    "x,p\\": 3921,
    "y,w": 3922,
    "k[x,y]": 3923,
    "vec": 3924,
    "[Y]": 3925,
    "Y]": 3926,
    "10r": 3927,
    "113.0": 3928,
    "40.0": 3929,
    "\\left||v\\right||": 3930,
    "B\\left": 3931,
    "3x3": 3932,
    "i!": 3933,
    "xP": 3934,
    ",...,B": 3935,
    "ci,x,y": 3936,
    "m[0]": 3937,
    "1782": 3938,
    "1922": 3939,
    "fw": 3940,
    "med": 3941,
    "va": 3942,
    "||L": 3943,
    "def": 3944,
    "24n": 3945,
    "n>d": 3946,
    "18x": 3947,
    "ASA": 3948,
    "area": 3949,
    "dyn": 3950,
    "C,x": 3951,
    "[1.697,0]": 3952,
    "wr": 3953,
    "3E": 3954,
    "SP": 3955,
    "Bu": 3956,
    "[x,s]": 3957,
    "poly": 3958,
    "Hm": 3959,
    "SV": 3960,
    "2a\\cos": 3961,
    "[85": 3962,
    "r\\sin\\phi": 3963,
    "z,f": 3964,
    "mC": 3965,
    ">v": 3966,
    "0.76": 3967,
    "2n,": 3968,
    "v,N": 3969,
    "SA": 3970,
    "231": 3971,
    "[\\theta": 3972,
    "S\\in": 3973,
    "ff": 3974,
    "\\phi\\in": 3975,
    "M,L": 3976,
    "CA": 3977,
    "223": 3978,
    "FRC": 3979,
    "SSNR": 3980,
    "4\\pi|x|": 3981,
    "RG": 3982,
    "2Ar": 3983,
    "x[": 3984,
    "near": 3985,
    "ttx": 3986,
    "H,X": 3987,
    "bc,bd": 3988,
    "7.0": 3989,
    "9k": 3990,
    "qp": 3991,
    "pd": 3992,
    "An": 3993,
    "\\left[x": 3994,
    "M\\left": 3995,
    "SFC": 3996,
    "299,792,458": 3997,
    "ld": 3998,
    "0,2a": 3999,
    "y\\div": 4000,
    "CBR": 4001,
    "2048": 4002,
    "3xyz": 4003,
    "480": 4004,
    "yv": 4005,
    "273": 4006,
    "48x": 4007,
    "dof": 4008,
    "s,t,u": 4009,
    "k[V]": 4010,
    "ord": 4011,
    "13!": 4012,
    "C,j": 4013,
    "\\tan[": 4014,
    "E[x]": 4015,
    "TV": 4016,
    "s\\in\\": 4017,
    "1H": 4018,
    "Td": 4019,
    "2\\tan": 4020,
    "sL": 4021,
    "kRT": 4022,
    "eg": 4023,
    "0.60": 4024,
    "2\\pi\\Delta": 4025,
    "114": 4026,
    "k,n,": 4027,
    "n,r,": 4028,
    "scat": 4029,
    "inc": 4030,
    "n,r,\\theta": 4031,
    "S,t": 4032,
    "iu": 4033,
    "6m": 4034,
    "t,\\sigma": 4035,
    "Xy": 4036,
    "65": 4037,
    "ijl": 4038,
    "k[x,y,z]": 4039,
    "225": 4040,
    "TAS": 4041,
    "FE": 4042,
    "cosh": 4043,
    "8v": 4044,
    "s]": 4045,
    "c,p": 4046,
    "c,ap": 4047,
    "[r": 4048,
    "AL": 4049,
    "RN": 4050,
    "[B": 4051,
    "qt": 4052,
    "Sim": 4053,
    "b,j": 4054,
    "opt": 4055,
    "LCM": 4056,
    "279": 4057,
    "Hot": 4058,
    "PHM": 4059,
    "975": 4060,
    "c\\cos": 4061,
    "|>": 4062,
    "1.22": 4063,
    "n\\": 4064,
    "EA": 4065,
    "101": 4066,
    "[N": 4067,
    "pIC": 4068,
    "n,h": 4069,
    "Frob": 4070,
    "cor": 4071,
    "E\\left": 4072,
    "v,q": 4073,
    "1,x,x": 4074,
    "H,C": 4075,
    "qk": 4076,
    "1T": 4077,
    "5r": 4078,
    "NH": 4079,
    "2dx": 4080,
    "bb": 4081,
    "ret": 4082,
    "l,q": 4083,
    "mod5": 4084,
    "Pv": 4085,
    "0.72m": 4086,
    "E[M]": 4087,
    "mln": 4088,
    "sech": 4089,
    ">d": 4090,
    "nFE": 4091,
    "1.4142s": 4092,
    "7i": 4093,
    "0.143": 4094,
    "4fy": 4095,
    "mkt": 4096,
    "argz": 4097,
    "c,z": 4098,
    "3.1": 4099,
    "\\theta,t": 4100,
    "x,n": 4101,
    "j,0": 4102,
    "gfg": 4103,
    "col": 4104,
    "p\\log": 4105,
    "g[\\log": 4106,
    "0.2345": 4107,
    "0.0391": 4108,
    "ssrt": 4109,
    "MRP": 4110,
    "xR": 4111,
    "8000": 4112,
    "mP": 4113,
    "xH": 4114,
    "196": 4115,
    "0.008": 4116,
    "ev": 4117,
    "2\\tan\\theta": 4118,
    "w\\infty": 4119,
    "z\\infty": 4120,
    "Mn": 4121,
    "...b": 4122,
    "jkl": 4123,
    "then": 4124,
    "P\\right": 4125,
    "j\\infty,": 4126,
    "j\\infty": 4127,
    "Hc": 4128,
    "0.100": 4129,
    "23x": 4130,
    "[TN]": 4131,
    "j,t": 4132,
    "c,t": 4133,
    "fv": 4134,
    "vb": 4135,
    "2r\\cos": 4136,
    "1,g": 4137,
    "dt]": 4138,
    "o,1": 4139,
    "7!": 4140,
    "vol": 4141,
    "w,z": 4142,
    "Mv": 4143,
    "y\\": 4144,
    "BGL": 4145,
    "13x": 4146,
    "hot": 4147,
    "even": 4148,
    "r>0": 4149,
    "rep": 4150,
    "B,X": 4151,
    "gg": 4152,
    "4xy": 4153,
    "pp\\sigma": 4154,
    "pp\\pi": 4155,
    "we": 4156,
    "E\\left[x": 4157,
    "9r": 4158,
    "proj": 4159,
    "0.02": 4160,
    "k,n,r,": 4161,
    "pass": 4162,
    ">T": 4163,
    "gM": 4164,
    "ERV": 4165,
    "d\\right": 4166,
    "cs": 4167,
    "x,i": 4168,
    "139": 4169,
    "x,y\\pm": 4170,
    "5,": 4171,
    "kL": 4172,
    "0.4031": 4173,
    "k[X": 4174,
    "d2": 4175,
    ",kv": 4176,
    "2az": 4177,
    "Arg": 4178,
    "CVP": 4179,
    ",0\\right]": 4180,
    "A[1]": 4181,
    "B>R": 4182,
    "eX": 4183,
    "\\left|L": 4184,
    "EG": 4185,
    "3G": 4186,
    "F[e": 4187,
    "n,q,x": 4188,
    "\\sin[\\log": 4189,
    "3FL": 4190,
    "Ran": 4191,
    "Id": 4192,
    "0.01x": 4193,
    "IF": 4194,
    "Mod": 4195,
    "adx": 4196,
    "0.96x": 4197,
    "56.4x": 4198,
    "810": 4199,
    "48EI": 4200,
    "\\infty,\\infty]": 4201,
    "t\\": 4202,
    "0,P": 4203,
    "3,20,0.05": 4204,
    "3.10": 4205,
    "e,n": 4206,
    "3q": 4207,
    "1,8": 4208,
    "142": 4209,
    "141": 4210,
    "LL": 4211,
    "A,\\sigma": 4212,
    "gA": 4213,
    "1.99": 4214,
    "619": 4215,
    "\\phi,": 4216,
    "[u,v]": 4217,
    "Ef": 4218,
    "pk": 4219,
    "...z": 4220,
    "z\\phi": 4221,
    "2as": 4222,
    "i,f": 4223,
    "0.35": 4224,
    "pqr": 4225,
    "im\\pi": 4226,
    "399": 4227,
    "uA": 4228,
    "x,X": 4229,
    "LV": 4230,
    "fr": 4231,
    "vr": 4232,
    "R,R": 4233,
    "y,pn": 4234,
    "IT": 4235,
    "N,h,x,e": 4236,
    "p,q,a": 4237,
    "Ch": 4238,
    "a,b,": 4239,
    ",...,\\theta": 4240,
    ",...,z": 4241,
    "5,4": 4242,
    "0.111": 4243,
    "I,M": 4244,
    "0,p": 4245,
    "\\sin\\theta\\cos\\theta": 4246,
    "LP": 4247,
    "4F": 4248,
    "zB": 4249,
    "p,p": 4250,
    "571": 4251,
    "uS": 4252,
    ",M\\": 4253,
    "2nd": 4254,
    "400N": 4255,
    "21r": 4256,
    "30r": 4257,
    "2nb": 4258,
    "370": 4259,
    "nj": 4260,
    "1613": 4261,
    "c>a": 4262,
    "1|": 4263,
    "A[x]": 4264,
    "A|": 4265,
    "a,P": 4266,
    "|\\sigma": 4267,
    "I\\div": 4268,
    "2\\log\\log": 4269,
    "Pu": 4270,
    "H,G": 4271,
    "open": 4272,
    "m.P": 4273,
    "m,": 4274,
    "kC": 4275,
    "355": 4276,
    "113": 4277,
    "4,20,0.05": 4278,
    "s\\right": 4279,
    "E[f": 4280,
    "lmV": 4281,
    "sd\\sigma": 4282,
    "m,1": 4283,
    "252": 4284,
    "5u": 4285,
    ",\\infty": 4286,
    "0.286": 4287,
    "qs": 4288,
    "d\\Delta": 4289,
    "L,t": 4290,
    "I\\mu": 4291,
    "Y[\\mathrm": 4292,
    "6c": 4293,
    ">V": 4294,
    "Age": 4295,
    "Fm": 4296,
    "0.125": 4297,
    "0.2M": 4298,
    "GP": 4299,
    "[ml": 4300,
    "beat": 4301,
    "jd": 4302,
    "dry": 4303,
    "t\\cos": 4304,
    "343": 4305,
    "3i": 4306,
    "|cz": 4307,
    "d|": 4308,
    "dyds": 4309,
    "rdx": 4310,
    "zw": 4311,
    "|j": 4312,
    "||p": 4313,
    "A,C\\right": 4314,
    "oo": 4315,
    "t,S": 4316,
    "321": 4317,
    "0.577": 4318,
    "ig": 4319,
    "0\\log": 4320,
    "null": 4321,
    "CY": 4322,
    "202": 4323,
    "1111": 4324,
    "8n": 4325,
    "y,m": 4326,
    "ML": 4327,
    "1,1,1,": 4328,
    "s,\\theta": 4329,
    "s\\theta": 4330,
    "9.81": 4331,
    "imi": 4332,
    "CMI": 4333,
    "X[n]": 4334,
    "240": 4335,
    "xa": 4336,
    "5q": 4337,
    ",a,g": 4338,
    "bank": 4339,
    "xu": 4340,
    "...a": 4341,
    "on": 4342,
    "125a": 4343,
    "2.0": 4344,
    "gF": 4345,
    "3H": 4346,
    "p>": 4347,
    "2,y": 4348,
    "14.696": 4349,
    "psia": 4350,
    "d,f": 4351,
    "P,V,T": 4352,
    "|jX": 4353,
    "s,n": 4354,
    "X.b": 4355,
    "Np": 4356,
    "wdx": 4357,
    "[1,n]": 4358,
    "[1,m]": 4359,
    "tz": 4360,
    "0.7\\pm": 4361,
    "G,t": 4362,
    "H,t": 4363,
    "609": 4364,
    "7766": 4365,
    "w|": 4366,
    "\\log\\log\\log": 4367,
    "1440": 4368,
    "m\\neq": 4369,
    "100n": 4370,
    ">s": 4371,
    "2.7": 4372,
    "CLI": 4373,
    "0.0588": 4374,
    "0.296": 4375,
    "15.8": 4376,
    "0.85t": 4377,
    "p\\": 4378,
    "a\\tan": 4379,
    "He": 4380,
    "soc": 4381,
    "full": 4382,
    "s,": 4383,
    "1.98": 4384,
    "n,a,b": 4385,
    "0.5\\pi": 4386,
    "l,m,n": 4387,
    "L[u]": 4388,
    "2ab\\cos": 4389,
    "244": 4390,
    "V,E\\right": 4391,
    "[1,2]": 4392,
    "\\pm\\theta": 4393,
    "0.003": 4394,
    "157": 4395,
    "27R": 4396,
    "64P": 4397,
    "X,x": 4398,
    "pub": 4399,
    "2xz": 4400,
    "wy": 4401,
    "B\\right": 4402,
    "[\\sin": 4403,
    "BI": 4404,
    "n\\mu": 4405,
    "curl": 4406,
    "a,\\theta,b,c": 4407,
    "[AB]": 4408,
    "x,A": 4409,
    "2vwyz": 4410,
    "2wuzx": 4411,
    "2uvxy": 4412,
    "t\\mathrm": 4413,
    "x\\tan\\theta": 4414,
    "[T]": 4415,
    "3.0": 4416,
    "\\left|V": 4417,
    "a]": 4418,
    "6a": 4419,
    "T.\\Delta": 4420,
    "\\left|z": 4421,
    "Bm": 4422,
    "m\\mu": 4423,
    "r\\theta": 4424,
    "8.4": 4425,
    "[N]": 4426,
    "zf": 4427,
    "amb": 4428,
    "\\theta\\phi": 4429,
    "x>0": 4430,
    "Lie": 4431,
    "58.456": 4432,
    "NR": 4433,
    "Av": 4434,
    "kTC": 4435,
    "mnp": 4436,
    "new": 4437,
    "Fan": 4438,
    "Mi": 4439,
    "[v][w]": 4440,
    "2,20,0.05": 4441,
    "[x,p]": 4442,
    "a,i": 4443,
    "VaR": 4444,
    "p,q,Tr": 4445,
    "S[i]": 4446,
    "S[j]": 4447,
    "3d": 4448,
    "60x": 4449,
    "odd": 4450,
    "N,P": 4451,
    "23.3|X|": 4452,
    "jy": 4453,
    "Hb": 4454,
    "||auth": 4455,
    "ct,": 4456,
    "SM": 4457,
    "0,\\pi": 4458,
    "p\\neq": 4459,
    "d[C]": 4460,
    "3nb": 4461,
    "\\left[X": 4462,
    "5959": 4463,
    "t|": 4464,
    "2kT": 4465,
    "0.34": 4466,
    "p>1": 4467,
    "r\\sin\\theta\\sin\\phi": 4468,
    "116": 4469,
    "sY": 4470,
    "Int": 4471,
    "n\\sigma": 4472,
    "T\\sigma": 4473,
    "\\left|E": 4474,
    "14.1014": 4475,
    "xo": 4476,
    "hs": 4477,
    "S[A[i]": 4478,
    "H[i": 4479,
    "V\\sin": 4480,
    "char": 4481,
    "cR": 4482,
    "H2": 4483,
    "fx": 4484,
    "far": 4485,
    "2,0,0": 4486,
    "CIRC": 4487,
    "rot": 4488,
    "lp": 4489,
    "192": 4490,
    "631": 4491,
    "bT": 4492,
    "4u": 4493,
    "Lf": 4494,
    "\\Delta\\neq": 4495,
    "0.98": 4496,
    "x,i,j": 4497,
    "5000": 4498,
    "a>b": 4499,
    "Hg": 4500,
    "80]": 4501,
    "1127": 4502,
    "fs": 4503,
    "1,t,t": 4504,
    "5xy": 4505,
    "AP>0": 4506,
    "N]": 4507,
    "\\log|z": 4508,
    "j,": 4509,
    "...x": 4510,
    "1260r": 4511,
    "4AB": 4512,
    "Bird": 4513,
    "v||": 4514,
    ",y\\right": 4515,
    "n\\sin\\theta": 4516,
    "Y\\left": 4517,
    "5,040": 4518,
    "GE": 4519,
    "Nil": 4520,
    "hR": 4521,
    "3.9": 4522,
    "...d": 4523,
    "EE": 4524,
    "\\theta\\log": 4525,
    "1.882x": 4526,
    "2.9088": 4527,
    "hmcr": 4528,
    "1.618": 4529,
    "1r": 4530,
    "12!": 4531,
    "MB": 4532,
    "nY": 4533,
    "inN": 4534,
    "2it": 4535,
    "vdv": 4536,
    "iX": 4537,
    "ACA": 4538,
    "2ky": 4539,
    "xyx": 4540,
    "kX": 4541,
    "HC": 4542,
    ",...,r": 4543,
    "v\\cos": 4544,
    "1000x": 4545,
    "p>p": 4546,
    "m\\": 4547,
    "216": 4548,
    "jn": 4549,
    "fX": 4550,
    "hw": 4551,
    "p\\Delta": 4552,
    "jX": 4553,
    "key": 4554,
    "N\\cos\\theta": 4555,
    "239": 4556,
    "NY": 4557,
    "1,0,0,\\pm": 4558,
    "G[": 4559,
    "[R": 4560,
    "23n": 4561,
    "xdy": 4562,
    "ydx": 4563,
    "185": 4564,
    "307": 4565,
    "179": 4566,
    "476": 4567,
    "bacd": 4568,
    "Eq.2": 4569,
    "iB": 4570,
    "1,1,0": 4571,
    "706": 4572,
    ".1": 4573,
    "y,f": 4574,
    "atm": 4575,
    "Poss": 4576,
    "cond": 4577,
    "gH": 4578,
    "15\\pi": 4579,
    "4C": 4580,
    "heat": 4581,
    "0.5L": 4582,
    "|N": 4583,
    "n>1": 4584,
    "13a": 4585,
    "9a": 4586,
    "14a": 4587,
    "11a": 4588,
    "q|": 4589,
    "339": 4590,
    "d[B]": 4591,
    "6\\div": 4592,
    "qdx": 4593,
    "Ti": 4594,
    "wd": 4595,
    "BSC": 4596,
    "tid": 4597,
    "...g": 4598,
    "vf": 4599,
    "detN": 4600,
    "[[x,y],z]": 4601,
    "[[y,z],x]": 4602,
    "[[z,x],y]": 4603,
    "2.1\\pm": 4604,
    "1.9": 4605,
    "vt\\cos\\theta": 4606,
    "nC": 4607,
    "1n": 4608,
    "X,R": 4609,
    "t,r": 4610,
    "0.042": 4611,
    "0k": 4612,
    "cP": 4613,
    "[P]": 4614,
    "1,2,...,n\\": 4615,
    "2rh": 4616,
    "e\\sin": 4617,
    "wa": 4618,
    "Tor": 4619,
    "r\\in\\left\\": 4620,
    "0,...,n": 4621,
    "1\\right\\": 4622,
    "aer": 4623,
    "2.25": 4624,
    "Cy": 4625,
    "c\\neq": 4626,
    "cap": 4627,
    "tx,ty": 4628,
    "2,R": 4629,
    "ta": 4630,
    "800": 4631,
    "aY": 4632,
    "itb": 4633,
    "ita": 4634,
    "[x,[y,z]]": 4635,
    "X,t": 4636,
    "i\\in[1,2,3,": 4637,
    "v\\mathrm": 4638,
    "wlp": 4639,
    "|s|": 4640,
    "PRF": 4641,
    "4\\Delta": 4642,
    "8.5": 4643,
    "[\\pi]": 4644,
    "MA": 4645,
    "sign": 4646,
    "AR": 4647,
    "oc": 4648,
    "27a": 4649,
    "2bP": 4650,
    "N\\sin\\theta": 4651,
    "2!2!": 4652,
    "j]": 4653,
    "En": 4654,
    "laea": 4655,
    "2dudv": 4656,
    "h\\": 4657,
    "g.e": 4658,
    "13.6": 4659,
    "50i": 4660,
    "2mr": 4661,
    "spo": 4662,
    "wh": 4663,
    "287": 4664,
    "456": 4665,
    "208": 4666,
    "q\\theta": 4667,
    "Vt": 4668,
    "C2": 4669,
    "\\left|X": 4670,
    "8E": 4671,
    "1929": 4672,
    "Vs": 4673,
    "z[1": 4674,
    "z]": 4675,
    "10a": 4676,
    "jwt": 4677,
    "Ta": 4678,
    "R[X": 4679,
    "2hc": 4680,
    "0.51": 4681,
    "EAS": 4682,
    "hl": 4683,
    "x,P": 4684,
    "b,d,u": 4685,
    "\\left|x\\right|": 4686,
    "Na": 4687,
    "n,\\theta": 4688,
    "Hf": 4689,
    "[x,y": 4690,
    "zp": 4691,
    "dt,": 4692,
    "\\neq\\infty": 4693,
    "||\\theta||": 4694,
    "C,i": 4695,
    "eS": 4696,
    "ATX": 4697,
    "a\\in\\": 4698,
    "s>": 4699,
    "0,A": 4700,
    "3125": 4701,
    "v\\": 4702,
    "[b]": 4703,
    "N>0": 4704,
    ",0,": 4705,
    "2N\\log": 4706,
    "|AC|": 4707,
    "|BC|": 4708,
    "160x": 4709,
    "E\\left[X": 4710,
    "12log": 4711,
    "kT\\log\\left": 4712,
    "Az": 4713,
    "Bz": 4714,
    "pa": 4715,
    "5,1": 4716,
    "5\\right": 4717,
    "94": 4718,
    "iI": 4719,
    "3.75": 4720,
    "fe": 4721,
    "m,1,m": 4722,
    "tau": 4723,
    "c\\sigma": 4724,
    ",\\cos": 4725,
    "tan\\theta": 4726,
    "a,b,c\\": 4727,
    "Pf": 4728,
    "hms": 4729,
    "0,h": 4730,
    "\\right|>1": 4731,
    "i,3": 4732,
    "i,4": 4733,
    ".X": 4734,
    "u,v,d": 4735,
    "600N": 4736,
    "126.7": 4737,
    "5i": 4738,
    "2k\\pi": 4739,
    "el": 4740,
    "0,50": 4741,
    "1,0,\\pm": 4742,
    "1,15": 4743,
    "2a\\Delta": 4744,
    "[0": 4745,
    "T1": 4746,
    "qy": 4747,
    "BE2": 4748,
    "conv": 4749,
    "|d|": 4750,
    "1.023": 4751,
    "Yi": 4752,
    "1\\mu": 4753,
    "[2]P": 4754,
    "x\\mathrm": 4755,
    "||\\sin\\theta": 4756,
    "\\cos\\theta\\right": 4757,
    "ikE": 4758,
    "12t": 4759,
    "xRx": 4760,
    "RAB": 4761,
    "lex": 4762,
    "m,j": 4763,
    "[R]": 4764,
    "M|z|": 4765,
    "215": 4766,
    "u\\neq": 4767,
    "j>0": 4768,
    "147": 4769,
    "f,z": 4770,
    "1m": 4771,
    "Nm": 4772,
    "Hw": 4773,
    "3j": 4774,
    "[h": 4775,
    "1,2,3": 4776,
    "|\\phi|": 4777,
    "8xy": 4778,
    "f,t": 4779,
    "[0,f": 4780,
    ",y\\": 4781,
    "2\\pi\\sin": 4782,
    "q>1": 4783,
    ",\\pm\\sigma": 4784,
    "\\left|y": 4785,
    "nit": 4786,
    "njt": 4787,
    "zyz": 4788,
    "G2": 4789,
    "2j\\pi": 4790,
    "0.54": 4791,
    "1853": 4792,
    "p,l": 4793,
    "Rn": 4794,
    "2,1\\right\\": 4795,
    "RF": 4796,
    "A,d": 4797,
    "Gen": 4798,
    "bY": 4799,
    "0.75a": 4800,
    "z,": 4801,
    "calc": 4802,
    "p,w": 4803,
    "1...N": 4804,
    "y,z\\right": 4805,
    "CG": 4806,
    "VN": 4807,
    "3S": 4808,
    "pri": 4809,
    "EAC": 4810,
    "p,s": 4811,
    "7,": 4812,
    "11,": 4813,
    "18,": 4814,
    "29,": 4815,
    "47,": 4816,
    "76,": 4817,
    "123,": 4818,
    "36r": 4819,
    "VC": 4820,
    "8,": 4821,
    "13,": 4822,
    "21,": 4823,
    "34,": 4824,
    "55,": 4825,
    "89,": 4826,
    "144,": 4827,
    "5.785": 4828,
    "8.333": 4829,
    "n,1,p": 4830,
    "A>": 4831,
    "3bx": 4832,
    "3cxy": 4833,
    "146": 4834,
    "\\phi\\": 4835,
    "[H,H]": 4836,
    "u.u": 4837,
    "SN": 4838,
    "T,t": 4839,
    "Frac": 4840,
    "t1": 4841,
    "tN": 4842,
    "k,1": 4843,
    ">\\mathrm": 4844,
    "4l": 4845,
    "[y,[z,x]]": 4846,
    "[z,[x,y]]": 4847,
    "0,...,": 4848,
    "\\cos\\pi": 4849,
    "Au": 4850,
    "Em": 4851,
    "2.1": 4852,
    "xRy": 4853,
    "|\\mu": 4854,
    "119": 4855,
    "228": 4856,
    "a,b,c,d": 4857,
    "hi": 4858,
    "9t": 4859,
    "NN": 4860,
    "y,s": 4861,
    "lk": 4862,
    "lkmn": 4863,
    "aF": 4864,
    "a||b": 4865,
    "p|": 4866,
    "2,N": 4867,
    "b,t": 4868,
    "2ac\\cos": 4869,
    "333": 4870,
    "c>1": 4871,
    "E[x": 4872,
    "Vdx": 4873,
    "4\\mu": 4874,
    "mi": 4875,
    "4abx": 4876,
    "303": 4877,
    "606": 4878,
    "rp": 4879,
    "obj": 4880,
    "xw": 4881,
    "PFER": 4882,
    "b,x": 4883,
    "alt": 4884,
    "r,\\theta,\\phi": 4885,
    "2\\sin\\theta": 4886,
    ",3m": 4887,
    "m1,m2,m3,k": 4888,
    "pf": 4889,
    "124": 4890,
    "a,1": 4891,
    "[A][H]": 4892,
    "rB": 4893,
    "0,1,0,0": 4894,
    "tq": 4895,
    "ic": 4896,
    "supp": 4897,
    "2,2,2": 4898,
    "B\\pm": 4899,
    "cho": 4900,
    "5.1": 4901,
    "My": 4902,
    "7p": 4903,
    "20p": 4904,
    "AG": 4905,
    "3ab": 4906,
    "\\left|M": 4907,
    "lnV": 4908,
    "xx,y": 4909,
    "7,7": 4910,
    "Ns": 4911,
    "lw": 4912,
    "qq": 4913,
    "C[a,b]": 4914,
    "k>": 4915,
    "k[G]": 4916,
    "ln2": 4917,
    ">0.5": 4918,
    "tw": 4919,
    "[u][v]": 4920,
    "wS": 4921,
    "y\\Delta": 4922,
    "153": 4923,
    "\\sigma,S,C\\right": 4924,
    "|F|": 4925,
    "perp": 4926,
    "1.0\\pm": 4927,
    "v|": 4928,
    "\\left|y\\right|": 4929,
    "l\\pm": 4930,
    "k,x": 4931,
    "2a\\pm": 4932,
    "t|m": 4933,
    "T|": 4934,
    "Xe": 4935,
    "zj": 4936,
    "TCPI": 4937,
    "9.2345": 4938,
    "\\sigma\\in": 4939,
    "||z": 4940,
    "35r": 4941,
    "60r": 4942,
    "sI": 4943,
    "f[X]": 4944,
    "Ao": 4945,
    "Bo": 4946,
    "vs": 4947,
    "Ind": 4948,
    "r,\\phi\\right": 4949,
    "2i\\theta": 4950,
    "247": 4951,
    "EG,X": 4952,
    "8N": 4953,
    "10n": 4954,
    "xg": 4955,
    "1,N": 4956,
    "||Ax": 4957,
    "Y||": 4958,
    "S[b": 4959,
    "s\\cos": 4960,
    "z\\cos": 4961,
    "s\\sin": 4962,
    ",cq": 4963,
    "j,n": 4964,
    "atan": 4965,
    "ru": 4966,
    "n,n,n": 4967,
    "vt\\right": 4968,
    "1.48": 4969,
    "rv": 4970,
    "Xdz": 4971,
    "b2": 4972,
    "n>N": 4973,
    "B3": 4974,
    "1,u": 4975,
    "Ty": 4976,
    "|m": 4977,
    "Fi": 4978,
    "Ft": 4979,
    "14x": 4980,
    "364": 4981,
    "Rep": 4982,
    "w,2": 4983,
    "X,Y\\": 4984,
    "y\\neq": 4985,
    "mh": 4986,
    "2kn": 4987,
    "p.q": 4988,
    "[\\mu": 4989,
    "s,\\mu": 4990,
    "qN": 4991,
    "xvy": 4992,
    "[dx": 4993,
    "1,c": 4994,
    "nP": 4995,
    "s,a,s": 4996,
    "k>n": 4997,
    "3X": 4998,
    "uh": 4999,
    "z\\neq": 5000,
    "8r": 5001,
    "Ec": 5002,
    "164": 5003,
    "lu": 5004,
    "I,": 5005,
    "bw": 5006,
    "con": 5007,
    "8.6": 5008,
    "c[x": 5009,
    ",t]": 5010,
    "Cu": 5011,
    "E\\left[": 5012,
    "V,E,A": 5013,
    "2,9": 5014,
    "CGM": 5015,
    "MT": 5016,
    "11.569": 5017,
    "3,7": 5018,
    "V,": 5019,
    "mor": 5020,
    "|k|\\neq": 5021,
    "g\\neq": 5022,
    "Cd": 5023,
    ",0]": 5024,
    "eB": 5025,
    "xq": 5026,
    "q2": 5027,
    "n>0": 5028,
    "\\pi,": 5029,
    "mul": 5030,
    "9.6": 5031,
    "2]V": 5032,
    "2N,": 5033,
    "xY": 5034,
    "266": 5035,
    "[0,2": 5036,
    "p[A,B]": 5037,
    "10.0": 5038,
    "2.29": 5039,
    "[w]": 5040,
    "j0.50": 5041,
    "d>1": 5042,
    "Rg": 5043,
    "1e": 5044,
    "0.04": 5045,
    "code": 5046,
    "E>E": 5047,
    "t2": 5048,
    "arv": 5049,
    "|f||g|": 5050,
    "1,p": 5051,
    "ijs": 5052,
    "6,3": 5053,
    "bP": 5054,
    "12\\div": 5055,
    "0.001": 5056,
    "FNR": 5057,
    "325": 5058,
    "p1": 5059,
    "H\\in": 5060,
    "fA": 5061,
    "5\\theta": 5062,
    "m\\phi": 5063,
    "k|z|": 5064,
    "0.3>": 5065,
    "Mdx": 5066,
    "[0,k]": 5067,
    "card": 5068,
    "G,4": 5069,
    "||u": 5070,
    "MH": 5071,
    "bdf": 5072,
    "z,w": 5073,
    "i,y": 5074,
    "cot": 5075,
    "h,0": 5076,
    "198": 5077,
    "d,": 5078,
    "g,": 5079,
    "HF": 5080,
    "2,x": 5081,
    "X,f": 5082,
    "\\sin\\theta\\left": 5083,
    "pec": 5084,
    "d,c": 5085,
    "C\\sigma": 5086,
    "lc": 5087,
    "[q": 5088,
    "c\\mu": 5089,
    "2,0,0,0,0,0,0": 5090,
    "[r]": 5091,
    "aP": 5092,
    "7.6": 5093,
    "za": 5094,
    "mg\\cos": 5095,
    "1,\\infty": 5096,
    "FTLE": 5097,
    "rec": 5098,
    "2,4": 5099,
    "1337": 5100,
    "0.85y": 5101,
    "2nm": 5102,
    "80x": 5103,
    "CAT": 5104,
    ",min": 5105,
    "Edim": 5106,
    ",S,P": 5107,
    "ian": 5108,
    "m>1": 5109,
    "2190": 5110,
    "AI": 5111,
    "g\\sin\\theta": 5112,
    "g\\tan\\theta": 5113,
    "0.009": 5114,
    "G,M": 5115,
    "8X": 5116,
    "a2": 5117,
    "f,f": 5118,
    "0.6s": 5119,
    "yM": 5120,
    "ah": 5121,
    "],[x": 5122,
    "HVL": 5123,
    "APB": 5124,
    "4py": 5125,
    "Nn": 5126,
    "189": 5127,
    "u,y": 5128,
    "ana": 5129,
    "u\\Delta": 5130,
    "lh": 5131,
    "size": 5132,
    "2,12": 5133,
    "mkT": 5134,
    "akt": 5135,
    "\\in[0,1]": 5136,
    "B,\\pi": 5137,
    "emp": 5138,
    ",max": 5139,
    "1,0,1": 5140,
    "err": 5141,
    ",...z": 5142,
    "iEt": 5143,
    "1,1,1,1": 5144,
    "E,F": 5145,
    ".M": 5146,
    "Vn": 5147,
    "2.9": 5148,
    "q1": 5149,
    "280r": 5150,
    "2N\\mu": 5151,
    "||h": 5152,
    "y,1": 5153,
    "k[t]": 5154,
    "rA": 5155,
    "1,\\sigma": 5156,
    "root": 5157,
    "Adx": 5158,
    "ETC": 5159,
    "ur": 5160,
    "||v": 5161,
    "wc": 5162,
    ",2n": 5163,
    "877": 5164,
    ",za": 5165,
    "138": 5166,
    "kb": 5167,
    "ig\\": 5168,
    ">B": 5169,
    "2lm": 5170,
    "\\mu\\right": 5171,
    "B|": 5172,
    "Alg": 5173,
    "d,k": 5174,
    "Fdr": 5175,
    "s|": 5176,
    "7.3": 5177,
    "0,...,q": 5178,
    "io": 5179,
    "mjwv": 5180,
    "qvXB": 5181,
    "kz": 5182,
    "t,d,n": 5183,
    "I[f": 5184,
    "1b": 5185,
    "tS": 5186,
    "6N": 5187,
    "s,\\Delta": 5188,
    "Nv": 5189,
    "]e": 5190,
    "F0": 5191,
    "1L": 5192,
    "ABCA": 5193,
    "6\\right": 5194,
    "zs": 5195,
    "32.45": 5196,
    "4dA": 5197,
    "LEL": 5198,
    "FS": 5199,
    ",[e": 5200,
    "]]]": 5201,
    ",[f": 5202,
    "vy": 5203,
    "7,4": 5204,
    "\\log|u": 5205,
    "[x,x]": 5206,
    "32.2": 5207,
    "1ft": 5208,
    "R[t]": 5209,
    "Gx": 5210,
    "24x": 5211,
    "v1": 5212,
    "\\left|p": 5213,
    "PME": 5214,
    "8!": 5215,
    "0.9511": 5216,
    "ac\\cos": 5217,
    "bc\\cos": 5218,
    "C\\mathrm": 5219,
    "r,x": 5220,
    "sCR": 5221,
    "Eh": 5222,
    "p,q\\": 5223,
    "q,r\\": 5224,
    ",m\\right": 5225,
    ",i\\right": 5226,
    "x>c": 5227,
    "g,0": 5228,
    "\\sigma\\left": 5229,
    "\\right|\\right": 5230,
    "56.5": 5231,
    "|G": 5232,
    "name": 5233,
    "S,A,B,C\\": 5234,
    "10ft": 5235,
    "169": 5236,
    "118": 5237,
    "d,b": 5238,
    "2mE": 5239,
    "2u,r": 5240,
    "p,0": 5241,
    "a\\log": 5242,
    "0.33": 5243,
    "2.2": 5244,
    "20\\log": 5245,
    "120x": 5246,
    "154": 5247,
    "t\\theta": 5248,
    "0,d": 5249,
    "177": 5250,
    "g,1": 5251,
    "2LT": 5252,
    "\\left[R": 5253,
    "d[M": 5254,
    "2|r": 5255,
    "ads": 5256,
    "S[i": 5257,
    "abz": 5258,
    "Conv": 5259,
    "217": 5260,
    "echo": 5261,
    ",Ax": 5262,
    "4.4": 5263,
    "648": 5264,
    "109": 5265,
    "dae": 5266,
    "384": 5267,
    "1.66": 5268,
    "x,y,z\\right": 5269,
    "56r": 5270,
    "p,q,r": 5271,
    "Ba": 5272,
    "0.011": 5273,
    "\\mu\\": 5274,
    "7,2": 5275,
    "Y1": 5276,
    "200M": 5277,
    "2|x": 5278,
    "11,5": 5279,
    "5.5a": 5280,
    "xyxy": 5281,
    "Tz": 5282,
    "h,g": 5283,
    "375": 5284,
    "213": 5285,
    "nA": 5286,
    "ne": 5287,
    "iR": 5288,
    "X,M": 5289,
    "3EI": 5290,
    "E.G": 5291,
    "100s": 5292,
    "0.0519": 5293,
    "MCF": 5294,
    "Bxy": 5295,
    "Y,i": 5296,
    "azeq": 5297,
    "\\phi,k": 5298,
    "tl": 5299,
    "2\\neq": 5300,
    "ne\\mu": 5301,
    "mea": 5302,
    "8c": 5303,
    "3125a": 5304,
    "152": 5305,
    "mpk": 5306,
    "7y": 5307,
    "[3k": 5308,
    "P,x": 5309,
    "13.6eV": 5310,
    "8.2": 5311,
    "loss": 5312,
    "2,6": 5313,
    "2ix": 5314,
    "cumf": 5315,
    "0e": 5316,
    "0.21": 5317,
    "2am": 5318,
    "6s": 5319,
    "VV": 5320,
    "1.07": 5321,
    "f\\neq": 5322,
    "xxt": 5323,
    "2\\sin\\pi": 5324,
    "pM": 5325,
    "Vw": 5326,
    "0,1,2,3": 5327,
    "3\\tan": 5328,
    "0.65": 5329,
    "\\left[\\cos\\left": 5330,
    "R\\tan\\theta\\right": 5331,
    "1X": 5332,
    "44x": 5333,
    "64x": 5334,
    "162": 5335,
    "qd": 5336,
    "E,S": 5337,
    "1,e": 5338,
    "Axe": 5339,
    "V,p": 5340,
    "x.x": 5341,
    "dx.": 5342,
    "\\neq\\sigma": 5343,
    "2,3,4": 5344,
    "3yx": 5345,
    "q.": 5346,
    "],[A": 5347,
    "e\\right": 5348,
    "x,y,k\\sigma\\right": 5349,
    "thm": 5350,
    "T3": 5351,
    "3,6,1": 5352,
    "4,1,5": 5353,
    "|2q|B": 5354,
    "r|f": 5355,
    "h,1": 5356,
    "RE": 5357,
    "10v": 5358,
    "N,e": 5359,
    "t,1": 5360,
    "t\\log": 5361,
    "n,v": 5362,
    ".\\Delta": 5363,
    "Fv": 5364,
    "Vk": 5365,
    "iB\\": 5366,
    "lj": 5367,
    "cab": 5368,
    "ju": 5369,
    "10,1": 5370,
    "3,q": 5371,
    "248": 5372,
    "bias": 5373,
    "ann": 5374,
    "2abc": 5375,
    "i\\mu\\phi": 5376,
    "Ric": 5377,
    "Y,": 5378,
    "ob": 5379,
    "0101": 5380,
    "3]": 5381,
    "loop": 5382,
    "m,n,": 5383,
    "not": 5384,
    "4ab": 5385,
    "184": 5386,
    "12.0": 5387,
    "6.937": 5388,
    "1222": 5389,
    "B[B]": 5390,
    "2Hl": 5391,
    "1763": 5392,
    "\\lambda": 5393,
    "\\lambda,1": 5394,
    "\\lambda,i": 5395,
    "\\Delta\\lambda": 5396,
    "x.t": 5397,
    "x.": 5398,
    "x.y": 5399,
    "y.y": 5400,
    "x.xx": 5401,
    "\\lambda,z": 5402,
    "m\\lambda": 5403,
    "d\\lambda": 5404,
    ",\\lambda": 5405,
    "a,\\lambda": 5406,
    "b,\\lambda": 5407,
    "2d\\sin\\theta": 5408,
    "n\\lambda": 5409,
    "|\\lambda|": 5410,
    "x,\\lambda": 5411,
    "f\\lambda": 5412,
    "2\\lambda": 5413,
    "\\lambda\\phi": 5414,
    "i\\lambda": 5415,
    "4\\lambda": 5416,
    "i,jj": 5417,
    "j,ij": 5418,
    "\\lambda\\neq": 5419,
    "[\\lambda,\\mu]": 5420,
    "k\\lambda": 5421,
    "|\\lambda": 5422,
    "f.": 5423,
    "x.f": 5424,
    "z.f": 5425,
    "1.22\\lambda": 5426,
    "\\lambda,": 5427,
    "R[R]": 5428,
    "G[G]": 5429,
    "0.098\\lambda": 5430,
    "0.177\\lambda": 5431,
    "0.152\\lambda": 5432,
    "\\neq\\lambda": 5433,
    "2n\\sin": 5434,
    "b\\lambda": 5435,
    "\\lambda,T": 5436,
    "1...3": 5437,
    "\\phi,\\lambda": 5438,
    "a\\lambda": 5439,
    "\\lambda,\\phi": 5440,
    "3\\lambda": 5441,
    "\\lambda\\sigma": 5442,
    "\\lambda\\": 5443,
    "\\lambda\\in": 5444,
    "x.xxx": 5445,
    "f.\\lambda": 5446,
    "n.\\lambda": 5447,
    "m.\\lambda": 5448,
    "x.m": 5449,
    "h.h": 5450,
    "80\\pi": 5451,
    "x,\\lambda,t": 5452,
    "L\\lambda": 5453,
    "\\pi,\\lambda": 5454,
    "y.f": 5455,
    "p.": 5456,
    "C\\neq": 5457,
    "227": 5458,
    "BT": 5459,
    "Pk": 5460,
    "6.9": 5461,
    "\\sin\\theta\\right": 5462,
    "Rord": 5463,
    "0.71N": 5464,
    "5\\mathrm": 5465,
    "x\\neq\\pm": 5466,
    "721": 5467,
    "2,s": 5468,
    "NM": 5469,
    "nL": 5470,
    "5m": 5471,
    "ak": 5472,
    "n,e": 5473,
    "881": 5474,
    "niq": 5475,
    "w,": 5476,
    "5.0": 5477,
    "all": 5478,
    ",...b": 5479,
    "292": 5480,
    "1992": 5481,
    "269": 5482,
    "4.799": 5483,
    "2dt": 5484,
    "1985": 5485,
    "195": 5486,
    "2.": 5487,
    "9\\cos": 5488,
    "iby": 5489,
    "7,x": 5490,
    "8,x": 5491,
    "L\\cos": 5492,
    "\\neq0": 5493,
    "567": 5494,
    "stu": 5495,
    "6\\cos": 5496,
    "i|": 5497,
    "393": 5498,
    "3840": 5499,
    "32|k|": 5500,
    "0.418": 5501,
    "[\\pm": 5502,
    "30\\cos": 5503,
    "6789": 5504,
    "7,1": 5505,
    "16R": 5506,
    "3.1563": 5507,
    "236": 5508,
    "1y": 5509,
    "3,x": 5510,
    "4,x": 5511,
    "2p\\log": 5512,
    "0.3957": 5513,
    "any": 5514,
    "5,x": 5515,
    "6,x": 5516,
    "\\pm1": 5517,
    "171": 5518,
    "z,\\cos": 5519,
    "323": 5520,
    "528": 5521,
    "1.2599": 5522,
    "173": 5523,
    "a[1]": 5524,
    "7e": 5525,
    "735": 5526,
    "0.999": 5527,
    "233": 5528,
    "[ab]": 5529,
    "9stu": 5530,
    "2,a": 5531,
    "9.3.b": 5532,
    "2dy": 5533,
    "1920": 5534,
    "cyc": 5535,
    "15!": 5536,
    "np\\theta": 5537,
    "725": 5538,
    "3072": 5539,
    "qyx": 5540,
    "P[C": 5541,
    "1.049": 5542,
    "197": 5543,
    "xy\\right|": 5544,
    "M\\sin": 5545,
    "52x": 5546,
    "\\log[": 5547,
    "0.77": 5548,
    "1[x,y,z]": 5549,
    "\\gt": 5550,
    "1\\sin\\theta": 5551,
    "a[i]": 5552,
    "16\\right": 5553,
    "0b": 5554,
    "xd": 5555,
    "1.973": 5556,
    "Nxdy": 5557,
    "32R": 5558,
    "8\\cos": 5559,
    "2M\\cos": 5560,
    "703": 5561,
    "w,z\\": 5562,
    "10001": 5563,
    "cdz": 5564,
    "0,7": 5565,
    "2m\\cos\\left": 5566,
    "Log": 5567,
    "fx\\in": 5568,
    "[V": 5569,
    "9.18": 5570,
    "2560": 5571,
    "2dxx": 5572,
    "9.1": 5573,
    "9.2": 5574,
    "2d\\theta": 5575,
    "33x": 5576,
    "132x": 5577,
    "4xyz": 5578,
    "i6": 5579,
    "1407": 5580,
    "E]": 5581,
    "|\\sin": 5582,
    "2,b": 5583,
    "2>0": 5584,
    "7.735": 5585,
    "[b]\\": 5586,
    "0\\sin": 5587,
    "2eBn": 5588,
    "\\left[t": 5589,
    "104x": 5590,
    "BdA": 5591,
    "qx,q": 5592,
    "1246": 5593,
    "7346": 5594,
    "7290": 5595,
    "1593": 5596,
    "575": 5597,
    "lept": 5598,
    "1u": 5599,
    "xb,": 5600,
    "yb]": 5601,
    "1968": 5602,
    "1605": 5603,
    "1614": 5604,
    "0.004": 5605,
    "11\\cos": 5606,
    "\\theta,0,": 5607,
    "1.4017": 5608,
    "g\\cos": 5609,
    "AAA": 5610,
    "|ya|": 5611,
    "5678": 5612,
    "20\\div30": 5613,
    "\\cos\\Delta\\theta": 5614,
    "1037": 5615,
    "yb": 5616,
    "Str": 5617,
    "yk": 5618,
    "7.2": 5619,
    "c\\theta": 5620,
    "481": 5621,
    "9.01": 5622,
    "11.78i": 5623,
    "3.3.28\\right": 5624,
    "3.3.29": 5625,
    "bbb": 5626,
    "p!j": 5627,
    "0|": 5628,
    "L!": 5629,
    "813": 5630,
    "1.07371.2227": 5631,
    "7268": 5632,
    "XCC": 5633,
    "16]": 5634,
    "c\\pi": 5635,
    "ABC11": 5636,
    "y\\right|": 5637,
    "149": 5638,
    "bab": 5639,
    "0.1173\\pm": 5640,
    "[3][4][3]": 5641,
    "2499": 5642,
    "48!": 5643,
    "17!31!": 5644,
    "1056": 5645,
    "3dxx": 5646,
    "3dyx": 5647,
    "3dxy": 5648,
    "3dyy": 5649,
    "2gx": 5650,
    "0.0893": 5651,
    "560": 5652,
    "n.": 5653,
    "24f": 5654,
    "1.783": 5655,
    "\\pi2": 5656,
    "669": 5657,
    "df.f": 5658,
    "f.df": 5659,
    "4Y": 5660,
    "5f": 5661,
    "1858": 5662,
    "dxy": 5663,
    "rw": 5664,
    "3.5593": 5665,
    "|k|u": 5666,
    "iu\\sin": 5667,
    "[dz]V": 5668,
    "y,B": 5669,
    "4.4.a": 5670,
    "4.4.e": 5671,
    "L\\sin": 5672,
    "\\sin\\sigma": 5673,
    "BCH": 5674,
    "z,\\sin": 5675,
    "!": 5676,
    "\\dots": 5677,
    "\\mid": 5678,
    "\\lim": 5679,
    "<": 5680,
    "<y": 5681,
    "\\Bigg": 5682,
    "\\lt": 5683,
    "P[x": 5684,
    "18abcd": 5685,
    "|z|\\mathrm": 5686,
    "\\Big": 5687,
    "15X": 5688,
    "pgcd": 5689,
    "Cste": 5690,
    "moy": 5691,
    "2||y": 5692,
    "dB\\left": 5693,
    "P[X]": 5694,
    "2,l": 5695,
    "\\cdots": 5696,
    "\\!": 5697,
    "1110\\": 5698,
    "Segmentation": 5699,
    "\\mbox": 5700,
    "8.8": 5701,
    "1789": 5702,
    "5.4": 5703,
    "8.9": 5704,
    "wX": 5705,
    "6.4": 5706,
    "7.9": 5707,
    "6.1": 5708,
    "3.8": 5709,
    "9.9": 5710,
    "dj": 5711,
    "oP": 5712,
    "9.0": 5713,
    "6.0": 5714,
    "$": 5715,
    "\\;": 5716,
    "\\!\\mathrm": 5717,
    "\\cos[": 5718,
    "u\\": 5719,
    "24c": 5720,
    "1\\": 5721,
    "5\\tan": 5722,
    "10\\tan": 5723,
    "Sup": 5724,
    "7j": 5725,
    "1v": 5726,
    "1x10": 5727,
    "2x10": 5728,
    "2RA": 5729,
    "2bt": 5730,
    "151": 5731,
    "168": 5732,
    "7X": 5733,
    "0.19": 5734,
    "182": 5735,
    "158": 5736,
    "183": 5737,
    "186": 5738,
    "117": 5739,
    "193": 5740,
    "159": 5741,
    "90a": 5742,
    "135a": 5743,
    "imx": 5744,
    "2i\\sin": 5745,
    "104": 5746,
    "9,81": 5747,
    "187": 5748,
    "134": 5749,
    "225a": 5750,
    "191": 5751,
    "188": 5752,
    "i,q": 5753,
    "f,s": 5754,
    "2147483647": 5755,
    "174": 5756,
    "351": 5757,
    "156": 5758,
    "20,6": 5759,
    "\\pm1,": 5760,
    "m5": 5761,
    "\\to": 5762,
    "\\cdot": 5763,
    "\\limits": 5764,
    "'": 5765,
    "\\lbrack": 5766,
    "\\rbrack": 5767,
    "\\parallel": 5768,
    "ABOVE": 5769,
    "\\hbox": 5770,
    "3\\": 5771
  },
  "min_freq": 2
}